unsigned char g_model[] = {
  0x1c, 0x00, 0x00, 0x00, 0x54, 0x46, 0x4c, 0x33, 0x14, 0x00, 0x20, 0x00,
  0x1c, 0x00, 0x18, 0x00, 0x14, 0x00, 0x10, 0x00, 0x0c, 0x00, 0x00, 0x00,
  0x08, 0x00, 0x04, 0x00, 0x14, 0x00, 0x00, 0x00, 0x1c, 0x00, 0x00, 0x00,
  0x90, 0x00, 0x00, 0x00, 0xc0, 0x00, 0x00, 0x00, 0x6c, 0x51, 0x00, 0x00,
  0x7c, 0x51, 0x00, 0x00, 0x0c, 0x5a, 0x00, 0x00, 0x03, 0x00, 0x00, 0x00,
  0x01, 0x00, 0x00, 0x00, 0x04, 0x00, 0x00, 0x00, 0x80, 0xa6, 0xff, 0xff,
  0x10, 0x00, 0x00, 0x00, 0x18, 0x00, 0x00, 0x00, 0x28, 0x00, 0x00, 0x00,
  0x44, 0x00, 0x00, 0x00, 0x05, 0x00, 0x00, 0x00, 0x73, 0x65, 0x72, 0x76,
  0x65, 0x00, 0x00, 0x00, 0x0f, 0x00, 0x00, 0x00, 0x73, 0x65, 0x72, 0x76,
  0x69, 0x6e, 0x67, 0x5f, 0x64, 0x65, 0x66, 0x61, 0x75, 0x6c, 0x74, 0x00,
  0x01, 0x00, 0x00, 0x00, 0x04, 0x00, 0x00, 0x00, 0xc4, 0xff, 0xff, 0xff,
  0x0a, 0x00, 0x00, 0x00, 0x04, 0x00, 0x00, 0x00, 0x05, 0x00, 0x00, 0x00,
  0x64, 0x65, 0x6e, 0x73, 0x65, 0x00, 0x00, 0x00, 0x01, 0x00, 0x00, 0x00,
  0x04, 0x00, 0x00, 0x00, 0x86, 0xae, 0xff, 0xff, 0x04, 0x00, 0x00, 0x00,
  0x07, 0x00, 0x00, 0x00, 0x69, 0x6e, 0x70, 0x75, 0x74, 0x5f, 0x31, 0x00,
  0x01, 0x00, 0x00, 0x00, 0x0c, 0x00, 0x00, 0x00, 0x08, 0x00, 0x0c, 0x00,
  0x08, 0x00, 0x04, 0x00, 0x08, 0x00, 0x00, 0x00, 0x0c, 0x00, 0x00, 0x00,
  0x04, 0x00, 0x00, 0x00, 0x13, 0x00, 0x00, 0x00, 0x6d, 0x69, 0x6e, 0x5f,
  0x72, 0x75, 0x6e, 0x74, 0x69, 0x6d, 0x65, 0x5f, 0x76, 0x65, 0x72, 0x73,
  0x69, 0x6f, 0x6e, 0x00, 0x0d, 0x00, 0x00, 0x00, 0xa8, 0x50, 0x00, 0x00,
  0xa0, 0x50, 0x00, 0x00, 0x68, 0x50, 0x00, 0x00, 0x28, 0x50, 0x00, 0x00,
  0x10, 0x50, 0x00, 0x00, 0xc8, 0x00, 0x00, 0x00, 0x4c, 0x00, 0x00, 0x00,
  0x44, 0x00, 0x00, 0x00, 0x3c, 0x00, 0x00, 0x00, 0x34, 0x00, 0x00, 0x00,
  0x2c, 0x00, 0x00, 0x00, 0x24, 0x00, 0x00, 0x00, 0x04, 0x00, 0x00, 0x00,
  0x06, 0xaf, 0xff, 0xff, 0x04, 0x00, 0x00, 0x00, 0x10, 0x00, 0x00, 0x00,
  0x31, 0x2e, 0x35, 0x2e, 0x30, 0x00, 0x00, 0x00, 0x00, 0x00, 0x00, 0x00,
  0x00, 0x00, 0x00, 0x00, 0x20, 0xa9, 0xff, 0xff, 0x24, 0xa9, 0xff, 0xff,
  0x28, 0xa9, 0xff, 0xff, 0x2c, 0xa9, 0xff, 0xff, 0x30, 0xa9, 0xff, 0xff,
  0x36, 0xaf, 0xff, 0xff, 0x04, 0x00, 0x00, 0x00, 0x6c, 0x00, 0x00, 0x00,
  0xba, 0x09, 0x3a, 0x83, 0x0e, 0x7b, 0x7f, 0x6c, 0x3e, 0x03, 0x7f, 0x04,
  0x61, 0x37, 0x6d, 0xed, 0x3e, 0x62, 0x1c, 0x55, 0xdf, 0x59, 0x51, 0x20,
  0xd8, 0x4b, 0x7f, 0x53, 0x37, 0x3d, 0x3a, 0x01, 0x6b, 0x73, 0x7f, 0x0b,
  0x64, 0xf5, 0xa2, 0x7e, 0x6f, 0xe8, 0xfd, 0x56, 0x7f, 0x16, 0x74, 0x08,
  0x15, 0x7f, 0xf5, 0x22, 0x71, 0x5c, 0x47, 0x38, 0x5e, 0x7f, 0x0e, 0x46,
  0x28, 0x1a, 0x5f, 0x4d, 0x14, 0x33, 0x16, 0x01, 0x7f, 0x7d, 0xf4, 0x17,
  0x35, 0x2f, 0x6a, 0x3b, 0x0e, 0x27, 0xa7, 0x92, 0x81, 0x87, 0xef, 0x65,
  0x0f, 0x7f, 0x78, 0x5c, 0x31, 0xb4, 0x9f, 0x94, 0xbb, 0x7f, 0x48, 0x11,
  0x62, 0x75, 0x68, 0x66, 0x93, 0xc4, 0xbe, 0x81, 0x48, 0x9e, 0x24, 0x5b,
  0xae, 0xaf, 0xff, 0xff, 0x04, 0x00, 0x00, 0x00, 0x38, 0x4f, 0x00, 0x00,
  0x05, 0x12, 0x12, 0x08, 0xf6, 0x11, 0x01, 0x07, 0xf6, 0x08, 0x06, 0xf7,
  0xfe, 0xf5, 0xea, 0x07, 0xf6, 0xef, 0xed, 0x00, 0x04, 0x07, 0xf3, 0xee,
  0xf2, 0xf2, 0xfe, 0xf3, 0xf9, 0xef, 0xec, 0xf3, 0x06, 0xf0, 0xf8, 0xf4,
  0xf1, 0xfc, 0xff, 0xee, 0x00, 0xfb, 0xf1, 0xf2, 0xfa, 0xf2, 0xf0, 0x02,
  0xf8, 0xeb, 0xf9, 0x01, 0xf8, 0xf5, 0xf6, 0xf2, 0x02, 0xf8, 0x02, 0xef,
  0xfa, 0xed, 0xfe, 0xfd, 0xf5, 0xf4, 0xf8, 0xe8, 0xf9, 0xf7, 0xf1, 0xff,
  0xf7, 0xff, 0xf6, 0xf7, 0x02, 0xf3, 0xff, 0xf7, 0x03, 0xf1, 0xf6, 0xf7,
  0xfa, 0xef, 0xf3, 0xf8, 0xf9, 0x04, 0xfe, 0x0e, 0xf9, 0x06, 0xf8, 0xf9,
  0xfb, 0xf8, 0xea, 0xff, 0xef, 0xee, 0xf0, 0xfe, 0x01, 0xfc, 0xf7, 0xf9,
  0xfb, 0xf7, 0xf6, 0xe8, 0xf0, 0xf9, 0xed, 0xf1, 0xef, 0xec, 0xeb, 0x09,
  0x03, 0xfd, 0xfe, 0xf7, 0xf8, 0x0b, 0x02, 0x02, 0xf0, 0x01, 0xfa, 0xfa,
  0xff, 0xf7, 0xef, 0xf3, 0xee, 0xff, 0xfc, 0x0b, 0xfe, 0xf1, 0xfe, 0xf7,
  0xfd, 0xf5, 0xf8, 0xf1, 0x05, 0xf5, 0xf9, 0xfb, 0xf4, 0xf7, 0xf9, 0xf1,
  0xf6, 0x0e, 0x08, 0x0a, 0xfa, 0xfa, 0x08, 0x05, 0xff, 0x0c, 0x05, 0xf0,
  0xf1, 0xed, 0xf9, 0xf1, 0xef, 0xef, 0xf5, 0xf7, 0x00, 0xf7, 0xf9, 0x01,
  0xf3, 0xf2, 0xef, 0xf3, 0xf5, 0xf8, 0xf9, 0xf6, 0xf0, 0xfd, 0xff, 0x01,
  0xfb, 0xfd, 0xfd, 0xf5, 0xf6, 0xf5, 0xf6, 0xfc, 0xfb, 0xfa, 0xf4, 0x08,
  0xf3, 0xfa, 0x06, 0x01, 0x00, 0x04, 0xf9, 0xf1, 0xf8, 0xf0, 0xfd, 0x03,
  0xfb, 0x08, 0x04, 0xfc, 0xfd, 0xf6, 0xfe, 0xf4, 0xf2, 0xff, 0x03, 0x04,
  0x00, 0xf8, 0x04, 0x04, 0x01, 0x0e, 0xff, 0x03, 0x01, 0x0b, 0x06, 0xfe,
  0x08, 0xfa, 0x03, 0xfe, 0xfd, 0xfb, 0xfd, 0xff, 0x0b, 0x02, 0x03, 0xfe,
  0x0a, 0xf1, 0x03, 0x07, 0x05, 0x06, 0xfe, 0xf7, 0x00, 0xf9, 0xfc, 0x0b,
  0xfb, 0xeb, 0xff, 0xfd, 0xf5, 0x02, 0xee, 0x02, 0xfa, 0xf9, 0x09, 0xfc,
  0xf6, 0xf5, 0xf9, 0x08, 0xfa, 0xf6, 0xff, 0x05, 0xf8, 0x05, 0xf5, 0xf2,
  0x00, 0x02, 0xf1, 0xfa, 0xf4, 0xf1, 0xfa, 0x04, 0xfa, 0x07, 0x01, 0xf7,
  0xfb, 0xea, 0xe8, 0xea, 0xf7, 0xf2, 0xf0, 0xec, 0xf0, 0xf1, 0xef, 0xf1,
  0x01, 0xf2, 0xec, 0xe8, 0x03, 0xe9, 0xeb, 0xfa, 0x04, 0xf3, 0xf1, 0xfa,
  0xfe, 0x02, 0xfd, 0x02, 0x00, 0xfc, 0xf7, 0xf7, 0xfe, 0x00, 0xfa, 0x04,
  0xf9, 0x06, 0xf8, 0xfb, 0xfe, 0xf5, 0x02, 0xfd, 0xf2, 0xf9, 0xf7, 0xfb,
  0xfe, 0x04, 0x04, 0xf2, 0xf3, 0x00, 0x01, 0xf9, 0xfa, 0xf9, 0xf7, 0x00,
  0x05, 0xfe, 0xf7, 0x04, 0xfb, 0x09, 0xf6, 0xf8, 0xf6, 0xf0, 0xfb, 0x00,
  0xff, 0x03, 0x07, 0x08, 0xfd, 0xf9, 0x08, 0xfb, 0xf4, 0xf9, 0x05, 0xfb,
  0x07, 0x04, 0x02, 0xfa, 0xfb, 0xf8, 0x03, 0x06, 0x02, 0x00, 0xf8, 0x00,
  0xfc, 0xf5, 0x00, 0x01, 0x0c, 0xfb, 0x0d, 0x09, 0xee, 0x07, 0xfa, 0x0b,
  0x04, 0x10, 0x08, 0xf9, 0x02, 0x01, 0xfd, 0xfe, 0xf9, 0x02, 0x02, 0x01,
  0xf8, 0xfe, 0xfe, 0x04, 0x00, 0xfe, 0x0e, 0xfa, 0xf3, 0xf5, 0xff, 0xea,
  0xfc, 0x0e, 0x00, 0x02, 0x01, 0xfb, 0xff, 0xfe, 0xf4, 0xfa, 0x01, 0xf4,
  0xf9, 0x07, 0x03, 0x15, 0x12, 0x0c, 0x02, 0x0d, 0xf3, 0x02, 0x0a, 0xdf,
  0xee, 0xe7, 0xca, 0xf0, 0xde, 0xe3, 0xf3, 0xef, 0xed, 0xef, 0xe8, 0xfb,
  0xf6, 0xf8, 0xfe, 0x07, 0xfa, 0xfa, 0xfc, 0xf2, 0xff, 0xf3, 0x0a, 0x03,
  0x03, 0x04, 0xf0, 0xff, 0xf9, 0xe6, 0x06, 0xf5, 0xfb, 0xf0, 0xf8, 0xfa,
  0xfb, 0x04, 0x01, 0xf7, 0xf3, 0x02, 0xfb, 0xf4, 0x00, 0xfd, 0xf8, 0xfc,
  0xf8, 0x04, 0xf4, 0xf3, 0xf3, 0x00, 0xf7, 0xf8, 0xea, 0xfd, 0xee, 0xfc,
  0x05, 0xf4, 0xfd, 0x05, 0xf3, 0xf4, 0xfd, 0x01, 0xec, 0xf9, 0xf1, 0xfd,
  0xf8, 0x01, 0xfa, 0x04, 0x01, 0x07, 0x05, 0x07, 0xf0, 0x05, 0x04, 0x09,
  0xff, 0x11, 0x11, 0x0c, 0x10, 0x07, 0x11, 0x07, 0xf6, 0x07, 0x0d, 0x0a,
  0x04, 0x0d, 0x02, 0xfe, 0x02, 0x12, 0x02, 0x14, 0xf7, 0x08, 0x01, 0xeb,
  0x16, 0x14, 0x13, 0x0a, 0x15, 0x12, 0x10, 0x04, 0xfa, 0x12, 0x0d, 0xda,
  0x08, 0x05, 0x0a, 0x07, 0x18, 0x04, 0x10, 0x0b, 0xe9, 0xf9, 0x08, 0xe4,
  0x08, 0x00, 0xff, 0xfa, 0x05, 0x03, 0x04, 0x07, 0xf9, 0xf5, 0x03, 0xd5,
  0xff, 0xfd, 0x01, 0x10, 0x0c, 0x06, 0xfe, 0x11, 0xef, 0xfe, 0x0b, 0xf0,
  0xf1, 0xe3, 0xef, 0xf7, 0xfa, 0xe8, 0xf6, 0x05, 0xf1, 0xef, 0xf2, 0xf2,
  0xf3, 0xf9, 0x07, 0x00, 0x0d, 0x06, 0xfc, 0x01, 0xf7, 0xf4, 0xfc, 0xf8,
  0x09, 0xfa, 0xf1, 0xfa, 0xf8, 0xeb, 0x00, 0x06, 0xfb, 0xf0, 0xf0, 0x02,
  0x08, 0x05, 0xfb, 0xf8, 0x07, 0xfc, 0x0a, 0xfc, 0xea, 0xf6, 0x07, 0xff,
  0x00, 0x03, 0xfa, 0x04, 0x02, 0xf5, 0xf4, 0xfc, 0xee, 0xf5, 0xff, 0x05,
  0xfd, 0x01, 0x06, 0x08, 0xfb, 0xfa, 0x02, 0xfc, 0xeb, 0xf5, 0xf0, 0x05,
  0x08, 0xff, 0x0a, 0x08, 0x03, 0xf9, 0x0c, 0xfd, 0xf1, 0x0c, 0xfd, 0x0f,
  0xf9, 0x05, 0xfa, 0xf5, 0xfb, 0x00, 0xf9, 0x04, 0xf4, 0xff, 0xef, 0xe5,
  0xf7, 0xf6, 0xf9, 0xfe, 0x01, 0x01, 0xf9, 0x01, 0xfa, 0xf7, 0xef, 0xe8,
  0xf9, 0x14, 0x05, 0xfc, 0x0f, 0x0c, 0x01, 0x07, 0xfc, 0xfb, 0xf0, 0xe6,
  0xf4, 0x11, 0x0d, 0x0e, 0x08, 0x02, 0x01, 0x07, 0xf3, 0xf4, 0x08, 0xe4,
  0xf7, 0x03, 0x0a, 0x0e, 0x0c, 0x0c, 0xfe, 0xff, 0xe7, 0xee, 0x06, 0xec,
  0x0a, 0x08, 0x08, 0x06, 0xfe, 0x14, 0x09, 0x07, 0xea, 0x00, 0xf7, 0xe1,
  0xf8, 0xee, 0xea, 0x07, 0x00, 0xdb, 0x00, 0xfd, 0xf1, 0xe0, 0xeb, 0xf1,
  0x00, 0x06, 0x0b, 0x05, 0xfb, 0xfb, 0xf7, 0xf3, 0x05, 0x00, 0xff, 0x04,
  0xf7, 0xfe, 0xfc, 0x04, 0xfc, 0xfd, 0x09, 0x0a, 0xf9, 0xff, 0xfd, 0xfe,
  0x0d, 0x06, 0x0a, 0x00, 0x03, 0x00, 0xf7, 0xf6, 0xee, 0xf9, 0x0d, 0xfc,
  0x03, 0xf7, 0xfa, 0x07, 0xf6, 0x05, 0xfb, 0x03, 0xf3, 0x00, 0xfa, 0xfe,
  0xfb, 0x06, 0xf6, 0xff, 0xf8, 0x0a, 0xfe, 0x02, 0xe0, 0xfb, 0xfa, 0x26,
  0xfe, 0xf7, 0xf9, 0xf7, 0xf9, 0x0a, 0x02, 0xfb, 0xf2, 0x08, 0xef, 0x04,
  0xf6, 0xf9, 0xe9, 0xf0, 0xfc, 0xfb, 0xf0, 0xf4, 0xf0, 0xe1, 0xe1, 0xf5,
  0xf0, 0xe8, 0xea, 0xee, 0xd9, 0xe2, 0xeb, 0xf4, 0xf7, 0xde, 0xde, 0x0a,
  0xf4, 0x02, 0x05, 0xfd, 0xf4, 0xf3, 0xf6, 0x01, 0xed, 0xfe, 0xed, 0xef,
  0x03, 0x02, 0xfb, 0xf7, 0xfe, 0x0a, 0x00, 0x0a, 0xf7, 0x00, 0xea, 0xee,
  0x06, 0x01, 0xfe, 0x01, 0x02, 0x06, 0x00, 0x0c, 0xf8, 0xfe, 0x03, 0xfe,
  0x15, 0x09, 0x01, 0x0f, 0x0b, 0x06, 0x03, 0x08, 0x04, 0x0a, 0x0e, 0xe5,
  0x03, 0xf0, 0xe9, 0x01, 0xfe, 0xf5, 0x09, 0x02, 0xf7, 0xea, 0x06, 0xf0,
  0xf2, 0xff, 0xf3, 0xfd, 0xec, 0xfc, 0x03, 0xf7, 0xf4, 0x06, 0xf8, 0xf8,
  0x02, 0x10, 0x10, 0x07, 0xfd, 0xfd, 0x00, 0x01, 0xed, 0x01, 0xfc, 0x07,
  0x00, 0x09, 0x0c, 0x02, 0x04, 0x06, 0xff, 0xfe, 0xe8, 0x02, 0x0c, 0x11,
  0x06, 0x0b, 0x08, 0x0b, 0xf9, 0x09, 0x09, 0x0a, 0xe1, 0xf9, 0xfa, 0x14,
  0x08, 0x11, 0x0d, 0x08, 0x06, 0x00, 0x07, 0x05, 0xe3, 0x07, 0x0a, 0x1c,
  0xff, 0x04, 0xfe, 0x07, 0x02, 0x01, 0x00, 0x0a, 0xf5, 0x04, 0x02, 0xf1,
  0xe9, 0xdc, 0xe4, 0xf9, 0xed, 0xe2, 0xe0, 0xf4, 0xe9, 0xdf, 0xe2, 0x0a,
  0xeb, 0xe4, 0xe8, 0xe2, 0xd2, 0xe8, 0xe8, 0xd0, 0xd3, 0xe0, 0xe2, 0x16,
  0xf9, 0xf7, 0x03, 0xfc, 0x00, 0xf4, 0xee, 0xf1, 0xdb, 0x01, 0xfe, 0x07,
  0x05, 0x05, 0x03, 0xff, 0xf4, 0xfe, 0xf9, 0xfb, 0xfa, 0x06, 0xff, 0x0d,
  0x09, 0x09, 0x03, 0x00, 0x04, 0xfa, 0xfa, 0x03, 0xf7, 0x03, 0xff, 0x02,
  0x13, 0x0d, 0x0a, 0x16, 0x0f, 0x17, 0x11, 0x0c, 0x09, 0x16, 0x17, 0xf8,
  0xf4, 0xfc, 0xfb, 0x0a, 0x0a, 0xf7, 0x0f, 0x11, 0x09, 0xf2, 0xfd, 0x03,
  0xe6, 0xe6, 0xfb, 0xe9, 0xef, 0xf0, 0xe9, 0xf3, 0xf9, 0xe4, 0xe9, 0xf8,
  0x0b, 0x09, 0xfd, 0xff, 0xf4, 0x04, 0x0c, 0xff, 0x00, 0x00, 0xfa, 0xfb,
  0x06, 0x05, 0x06, 0x01, 0xfb, 0x08, 0x0d, 0x0c, 0xee, 0x00, 0x05, 0xf4,
  0x05, 0x04, 0x10, 0x0b, 0x00, 0xff, 0x07, 0x12, 0xe9, 0x09, 0x04, 0x07,
  0x03, 0x05, 0x05, 0x16, 0x13, 0x19, 0x10, 0x08, 0xe9, 0x0f, 0xfb, 0x0c,
  0xf4, 0x03, 0x03, 0x09, 0x0e, 0xfc, 0xff, 0xfb, 0x00, 0x0c, 0xf3, 0xec,
  0xe4, 0xe1, 0xdf, 0xdc, 0xe0, 0xeb, 0xed, 0xdc, 0xe4, 0xc5, 0xe4, 0x12,
  0xf5, 0xec, 0xf5, 0xf9, 0xeb, 0xf5, 0xe8, 0xe7, 0xcd, 0xf4, 0xe7, 0x20,
  0x03, 0x01, 0xfb, 0x04, 0xfc, 0xf8, 0xf4, 0xfc, 0xf4, 0x13, 0xf4, 0x01,
  0x05, 0x02, 0x00, 0x05, 0xfd, 0x03, 0x0e, 0x02, 0x03, 0x04, 0xf8, 0x10,
  0x08, 0xf9, 0x0a, 0x00, 0xfe, 0xfe, 0x03, 0xff, 0xf7, 0x08, 0xf6, 0x0c,
  0x05, 0x0f, 0x11, 0x00, 0xfd, 0x03, 0x13, 0x11, 0x03, 0x0b, 0x05, 0x06,
  0xe6, 0xfc, 0xff, 0x02, 0x0b, 0xe4, 0x04, 0x00, 0x0a, 0xe1, 0xfd, 0xfe,
  0xed, 0xe3, 0xe1, 0xed, 0xde, 0xe3, 0xea, 0xf8, 0xf4, 0xf5, 0xec, 0xf9,
  0xf5, 0x07, 0xf8, 0xf0, 0xf1, 0xf6, 0x02, 0xff, 0xf8, 0xf5, 0xf9, 0x03,
  0x03, 0xfa, 0x0a, 0xfe, 0xff, 0x0a, 0xf4, 0xfd, 0xfd, 0xf8, 0xf5, 0xed,
  0x0a, 0xfe, 0x0e, 0x02, 0x0c, 0x0f, 0x07, 0x04, 0xf3, 0x00, 0x04, 0x03,
  0x15, 0x0f, 0x15, 0x0f, 0x02, 0x07, 0x06, 0x03, 0xf8, 0x03, 0x0a, 0xfd,
  0x01, 0xfe, 0x08, 0xfb, 0x05, 0xf8, 0x01, 0xfe, 0xe6, 0xee, 0xff, 0x04,
  0x01, 0xe5, 0xe6, 0xed, 0xe1, 0xe5, 0xee, 0xe5, 0xc3, 0xef, 0xf9, 0x17,
  0x0b, 0x00, 0xfc, 0xfc, 0xec, 0xf0, 0xec, 0xf7, 0xea, 0x0c, 0xff, 0x1a,
  0x02, 0x04, 0x0c, 0xfa, 0xfd, 0x01, 0x09, 0xf8, 0x03, 0x05, 0x06, 0x04,
  0xfe, 0x01, 0x07, 0xfa, 0xfa, 0x00, 0x02, 0x06, 0x09, 0xf7, 0xf6, 0x24,
  0xf9, 0x01, 0xfe, 0x03, 0xfc, 0x04, 0xf5, 0xfd, 0x03, 0x09, 0xf9, 0x12,
  0x00, 0x0c, 0x03, 0x0d, 0x08, 0x06, 0x01, 0x06, 0x04, 0xf4, 0x01, 0xf5,
  0xe8, 0xf6, 0xec, 0xfa, 0x04, 0xe9, 0x03, 0xfd, 0xf6, 0xe1, 0xf5, 0xf9,
  0xea, 0xdd, 0xda, 0xeb, 0xe1, 0xe9, 0xe6, 0xec, 0xeb, 0xda, 0xf2, 0xec,
  0xff, 0xfa, 0x05, 0xf3, 0xe9, 0xfa, 0x01, 0x03, 0xe8, 0xf6, 0xed, 0x05,
  0xfe, 0xf8, 0x05, 0x03, 0xfe, 0x00, 0xfb, 0xf3, 0xf2, 0x07, 0xf6, 0xe5,
  0x03, 0x02, 0x07, 0xfc, 0xfc, 0x0a, 0xf7, 0x0b, 0xf6, 0x01, 0xfc, 0xe1,
  0x0e, 0x17, 0x10, 0x16, 0x13, 0x10, 0x09, 0x03, 0xfa, 0xff, 0x02, 0xef,
  0x07, 0xff, 0x14, 0x10, 0x18, 0x0d, 0xff, 0x03, 0xf2, 0xfc, 0x07, 0xf9,
  0xfd, 0x01, 0xf6, 0x05, 0x0b, 0xfd, 0xff, 0x07, 0xf2, 0x05, 0x01, 0x00,
  0x02, 0x05, 0xfd, 0xfb, 0xf9, 0xf8, 0xfd, 0xf2, 0xfd, 0x09, 0x04, 0x09,
  0x04, 0xfc, 0x07, 0x09, 0xf1, 0xf9, 0x02, 0x06, 0x05, 0x06, 0xf3, 0x11,
  0xf3, 0x01, 0xf8, 0xff, 0xf6, 0x01, 0x04, 0xff, 0x09, 0x00, 0xfa, 0x0a,
  0x09, 0xfc, 0xfd, 0x0a, 0xfc, 0x07, 0x09, 0x08, 0x03, 0x01, 0xf7, 0xf5,
  0xfa, 0xfb, 0xfe, 0xfb, 0x0b, 0xf5, 0x0b, 0x0b, 0x05, 0xfd, 0xf5, 0xfc,
  0xf0, 0xf6, 0xfc, 0xfb, 0xf6, 0xfb, 0xfe, 0xf8, 0xee, 0xe3, 0xf1, 0xf7,
  0xf9, 0xf2, 0xe5, 0xf0, 0xf3, 0xf7, 0xef, 0xe2, 0xf7, 0xf5, 0xed, 0xf7,
  0x0e, 0xf6, 0x05, 0x0a, 0xf7, 0x03, 0xfe, 0x04, 0x08, 0xfb, 0xe7, 0xf2,
  0x04, 0x0e, 0x05, 0x06, 0x0e, 0x03, 0x04, 0x0c, 0x02, 0x00, 0x05, 0xe0,
  0xf9, 0xfa, 0x04, 0xf5, 0xf8, 0xfc, 0xfa, 0xfb, 0x04, 0xf4, 0x00, 0xe4,
  0x0a, 0x04, 0x03, 0x04, 0x00, 0x03, 0x00, 0x0d, 0x04, 0xfd, 0x06, 0xda,
  0x08, 0x10, 0x0e, 0x0f, 0x11, 0x02, 0x01, 0x11, 0xf9, 0x08, 0x0d, 0xf1,
  0x0d, 0x0f, 0x0e, 0x06, 0x09, 0x0c, 0x05, 0x07, 0xf6, 0xfb, 0x0a, 0xf7,
  0x11, 0xfe, 0x0b, 0x02, 0x04, 0x06, 0xf6, 0x0a, 0xf3, 0x01, 0xfb, 0x18,
  0x02, 0xf3, 0xfd, 0x06, 0xf5, 0xf5, 0x01, 0xf1, 0xfe, 0xf8, 0x06, 0x0a,
  0x01, 0x06, 0xf7, 0xfe, 0x02, 0x00, 0xff, 0x07, 0x02, 0x04, 0xfb, 0x0c,
  0x01, 0x05, 0x00, 0x00, 0x03, 0x0f, 0xfc, 0x07, 0x07, 0x08, 0xf3, 0xfc,
  0xf6, 0xfe, 0xf7, 0xff, 0xff, 0x02, 0xf9, 0x05, 0xfc, 0xf7, 0x01, 0x0d,
  0xf2, 0xfb, 0xef, 0xfa, 0xf3, 0xfa, 0x01, 0x03, 0xf9, 0xf8, 0xed, 0xfa,
  0xec, 0xea, 0xf6, 0xe7, 0xf7, 0xfa, 0xf9, 0xf0, 0xec, 0xf2, 0x01, 0x04,
  0xfa, 0xf5, 0xe5, 0xf7, 0xf4, 0xe9, 0xfc, 0xf8, 0x09, 0xfe, 0xe7, 0xf7,
  0x0a, 0xfe, 0xf2, 0x01, 0xfa, 0xf3, 0x03, 0xfb, 0x0e, 0x06, 0xe8, 0xef,
  0x06, 0xff, 0xff, 0xfe, 0xfb, 0x01, 0xfe, 0x08, 0x00, 0xf8, 0xf8, 0xdf,
  0xf7, 0x0c, 0xfc, 0x0c, 0x10, 0x06, 0x0d, 0xfe, 0x06, 0x0c, 0x02, 0xf9,
  0xff, 0x05, 0x15, 0x08, 0x11, 0x0a, 0xff, 0x10, 0x09, 0x06, 0x06, 0xf9,
  0xfd, 0x12, 0x07, 0x03, 0x08, 0x05, 0x15, 0x03, 0x13, 0x01, 0x14, 0xf5,
  0x05, 0xfa, 0x03, 0x01, 0xfe, 0xf7, 0x0f, 0x03, 0x04, 0x0d, 0x12, 0xf7,
  0xf7, 0x00, 0xf8, 0xfd, 0xf8, 0xf3, 0xfb, 0xf5, 0xff, 0xf9, 0xfd, 0x04,
  0xea, 0xeb, 0xe9, 0xfa, 0xff, 0xf0, 0xfc, 0xfc, 0x03, 0xfc, 0xf9, 0x0d,
  0xfd, 0xfa, 0xf1, 0xf9, 0x01, 0xfb, 0x06, 0xf4, 0xf9, 0xf2, 0xf7, 0xfa,
  0xf8, 0x02, 0xf0, 0xfa, 0xf8, 0xf0, 0xfa, 0xf9, 0xf9, 0xe5, 0xe4, 0xf5,
  0xf4, 0xf5, 0xf7, 0xf5, 0xed, 0xf2, 0xef, 0xf2, 0xf8, 0xf1, 0xf9, 0xf3,
  0xf8, 0xf5, 0xf3, 0x08, 0xf5, 0xfb, 0x00, 0xf2, 0x05, 0x04, 0x06, 0xfc,
  0xee, 0xeb, 0xf9, 0xdf, 0xf1, 0xf8, 0xe9, 0xec, 0xf1, 0xe3, 0x01, 0x00,
  0xeb, 0xde, 0xd6, 0xdd, 0xe2, 0xdf, 0xf5, 0xe7, 0xf0, 0xe8, 0xee, 0xf2,
  0xe0, 0xef, 0xe9, 0xed, 0xdf, 0xf4, 0xf9, 0xf0, 0xf7, 0xe1, 0xea, 0xed,
  0xe0, 0xf5, 0xda, 0xed, 0xd6, 0xe8, 0xf8, 0xe9, 0xf7, 0xe0, 0xdb, 0x01,
  0xe8, 0xe5, 0xe9, 0xfd, 0xe6, 0xf8, 0x01, 0xf3, 0xfe, 0xde, 0xd8, 0xf2,
  0xe4, 0xe1, 0xe3, 0xff, 0xe2, 0xf1, 0x00, 0xf2, 0xff, 0xcd, 0xcf, 0x00,
  0xdf, 0xe1, 0xe5, 0xf3, 0xef, 0xf3, 0xe7, 0xeb, 0xeb, 0xd0, 0xdd, 0x08,
  0xed, 0xe3, 0xe3, 0xef, 0xe4, 0xf2, 0xed, 0xe3, 0xf4, 0xdb, 0xe8, 0xf6,
  0xf4, 0xe9, 0xda, 0xef, 0xec, 0xe6, 0xe1, 0xea, 0xf1, 0xe8, 0xef, 0xf2,
  0xeb, 0xeb, 0xf0, 0xed, 0xf0, 0xe6, 0xef, 0xef, 0xf3, 0xf1, 0xe5, 0xec,
  0xf8, 0xec, 0xe5, 0xe8, 0xfc, 0xf0, 0xf5, 0xea, 0xef, 0xef, 0xfd, 0xfe,
  0x04, 0x00, 0xfb, 0xf8, 0xf7, 0xff, 0xf4, 0x04, 0xf3, 0xfc, 0xfe, 0xf8,
  0x0f, 0x00, 0x07, 0x0e, 0x0e, 0x09, 0x06, 0x07, 0x13, 0x16, 0x0c, 0x1e,
  0x12, 0xfd, 0x04, 0xfe, 0x0f, 0xf5, 0xf6, 0x04, 0x0c, 0x08, 0x0c, 0x1d,
  0x06, 0xf0, 0xfa, 0xfe, 0x12, 0xfa, 0xf5, 0xf5, 0x0b, 0x02, 0xfc, 0x11,
  0x06, 0xf8, 0xf2, 0xee, 0x0a, 0x00, 0xf2, 0xf9, 0x1b, 0xf0, 0xf4, 0x15,
  0xfb, 0xf0, 0xf9, 0xee, 0x02, 0xed, 0xec, 0xeb, 0x0c, 0x01, 0xf7, 0x14,
  0xfd, 0xef, 0xf3, 0xef, 0xe8, 0xe5, 0xf7, 0xf2, 0x1b, 0xf1, 0xe7, 0x05,
  0x07, 0xfd, 0x01, 0xfb, 0x09, 0x06, 0xfa, 0x00, 0x19, 0x02, 0x07, 0x19,
  0xfb, 0xfe, 0x0e, 0x07, 0x06, 0xfb, 0x00, 0x05, 0x13, 0xff, 0xfb, 0x02,
  0x00, 0xe7, 0xf6, 0xfc, 0xf3, 0xed, 0xfa, 0xfc, 0x12, 0xfe, 0xfc, 0xf6,
  0xe9, 0xd2, 0xe2, 0xdf, 0xda, 0xd9, 0xdf, 0xed, 0x10, 0xe5, 0xe5, 0x09,
  0xda, 0xdb, 0xed, 0xe0, 0xe3, 0xd4, 0xd2, 0xd4, 0x0f, 0xd6, 0xe1, 0x17,
  0xf7, 0xdd, 0xec, 0xe6, 0xfa, 0xde, 0xef, 0xed, 0x18, 0xde, 0xe5, 0x0d,
  0x05, 0x00, 0x03, 0xeb, 0x13, 0xf6, 0xfc, 0xeb, 0x10, 0xf6, 0xf0, 0x20,
  0x1c, 0x00, 0x06, 0x09, 0x0c, 0x07, 0x11, 0x00, 0x0d, 0x03, 0x10, 0x0c,
  0x13, 0x09, 0x0b, 0xfe, 0x10, 0x0d, 0x03, 0x03, 0x1d, 0xf5, 0x06, 0x0f,
  0x07, 0xf8, 0x00, 0xf4, 0x03, 0xf9, 0xf5, 0x04, 0x14, 0xf8, 0xf2, 0x1a,
  0x04, 0xf6, 0xf7, 0xf9, 0xfa, 0xf4, 0xfd, 0xf9, 0x02, 0xf7, 0xee, 0x06,
  0xf5, 0xf3, 0xfa, 0xfd, 0xff, 0xfc, 0xf6, 0xec, 0xfc, 0xfd, 0xfc, 0x0c,
  0x04, 0x02, 0x06, 0xf7, 0xf4, 0x02, 0xfb, 0x0a, 0xfa, 0xf9, 0xfd, 0x14,
  0xff, 0x0c, 0x02, 0x07, 0xfd, 0xfc, 0x0b, 0xff, 0xfa, 0x09, 0xf5, 0x25,
  0x02, 0x09, 0x0a, 0x02, 0x0d, 0xff, 0x06, 0x01, 0x23, 0x0b, 0xf7, 0x11,
  0x06, 0x02, 0x06, 0x05, 0xfb, 0xf3, 0x05, 0xf7, 0x01, 0xfb, 0xfc, 0x14,
  0x03, 0x08, 0x0f, 0xf8, 0x0c, 0x03, 0xfe, 0xf7, 0x03, 0xf5, 0xfb, 0x2a,
  0x16, 0x0e, 0x0f, 0x0f, 0x05, 0x0a, 0xff, 0x03, 0xfc, 0x0c, 0x06, 0x0e,
  0x0c, 0xf3, 0xf1, 0x02, 0xf6, 0x01, 0xf2, 0x0d, 0x06, 0xff, 0x05, 0x1c,
  0xfa, 0xe1, 0xf3, 0xeb, 0xfa, 0xf4, 0xfb, 0xf9, 0xfd, 0xef, 0xee, 0x12,
  0x0e, 0xea, 0xff, 0xf3, 0x10, 0xf5, 0xf8, 0xfd, 0x0b, 0xf8, 0xfa, 0x11,
  0x05, 0xfd, 0xf3, 0xfd, 0x07, 0xf8, 0xf9, 0xfa, 0x18, 0xfa, 0xfc, 0x19,
  0xf4, 0xfa, 0xed, 0xf8, 0x00, 0xfb, 0xf8, 0xf1, 0x04, 0xfd, 0xf4, 0x0a,
  0xf9, 0xf2, 0xec, 0xee, 0xe9, 0xe9, 0xf8, 0xef, 0xfa, 0xe3, 0xf5, 0x00,
  0xeb, 0xf7, 0xf6, 0xef, 0xec, 0xfa, 0xf1, 0xf1, 0xde, 0xf9, 0xf2, 0xfc,
  0xfd, 0xf4, 0xf3, 0xff, 0xf5, 0x03, 0xfe, 0x03, 0xce, 0xec, 0xf9, 0x04,
  0xee, 0xf2, 0xf5, 0x06, 0xf8, 0x06, 0x01, 0xf8, 0xd1, 0xec, 0xed, 0x02,
  0xfa, 0xec, 0xee, 0x01, 0xf8, 0xf8, 0xfc, 0xf7, 0xda, 0xf2, 0xf2, 0x14,
  0xec, 0xfd, 0xf6, 0xfc, 0xea, 0x00, 0xf6, 0x00, 0xdc, 0xfd, 0xea, 0x28,
  0x00, 0x08, 0x05, 0xfb, 0x02, 0xf8, 0xfb, 0xf7, 0xed, 0x04, 0xf3, 0x1a,
  0xfd, 0x11, 0xfe, 0x0b, 0x02, 0x0c, 0x06, 0x02, 0x01, 0xfe, 0x01, 0x06,
  0xe6, 0xf2, 0xfd, 0x07, 0xfc, 0xf9, 0xf9, 0xf5, 0x02, 0xf8, 0xff, 0x17,
  0xeb, 0xe6, 0xe4, 0xe4, 0xf3, 0xee, 0xe8, 0xf7, 0x02, 0xe9, 0xf2, 0x0a,
  0x09, 0xe9, 0xf8, 0xfb, 0x14, 0xfa, 0xfb, 0xf8, 0x09, 0xeb, 0x09, 0x09,
  0xfa, 0xed, 0xff, 0xf9, 0xf0, 0xfc, 0xf5, 0xf9, 0x08, 0x04, 0xf7, 0x11,
  0x01, 0x01, 0xff, 0x01, 0xf5, 0xfe, 0xf6, 0xfc, 0xf3, 0xea, 0xfd, 0xff,
  0xf7, 0xf2, 0xfb, 0xfd, 0xf3, 0xeb, 0xfa, 0xed, 0xee, 0xf2, 0xfa, 0xf7,
  0xf9, 0xf0, 0xf9, 0x01, 0xfc, 0xf2, 0xf3, 0xeb, 0xf0, 0xf8, 0xe8, 0xdd,
  0xfc, 0xf3, 0x00, 0xef, 0xfd, 0xf7, 0xf6, 0xf8, 0xd6, 0xf2, 0xfc, 0xea,
  0xff, 0x08, 0x06, 0xf2, 0x05, 0xf7, 0x00, 0x04, 0xca, 0xe5, 0xfe, 0xe4,
  0xf9, 0x05, 0xf8, 0x0c, 0xf7, 0x07, 0x09, 0xf9, 0xc4, 0xf7, 0x03, 0x04,
  0xf1, 0xfb, 0xf5, 0xfc, 0xf8, 0xf6, 0xf9, 0xfc, 0xdc, 0xf0, 0xf1, 0xf7,
  0xec, 0xf6, 0xf7, 0xf4, 0xf8, 0xf8, 0xf0, 0xf8, 0xfb, 0xf8, 0xea, 0xf5,
  0xfc, 0x04, 0x03, 0xf5, 0xff, 0x02, 0xfe, 0xf4, 0xf8, 0xff, 0xf5, 0x0f,
  0xde, 0xe4, 0xf2, 0xfa, 0xfe, 0xef, 0xf3, 0xee, 0xfe, 0xe5, 0xdf, 0x0d,
  0xd7, 0xdc, 0xde, 0xd4, 0xe9, 0xd3, 0xe8, 0xd1, 0xea, 0xc8, 0xcc, 0x05,
  0x0b, 0xf3, 0x02, 0xea, 0x13, 0xf6, 0xfa, 0xf7, 0x15, 0xfb, 0x0f, 0x1b,
  0xfc, 0xf0, 0xfc, 0xf1, 0xfd, 0xfb, 0xea, 0xf5, 0xfb, 0xf3, 0xff, 0x07,
  0xf4, 0xf1, 0xfd, 0xf1, 0xf2, 0xf6, 0xfa, 0xf3, 0x01, 0x00, 0xfe, 0x01,
  0xeb, 0xf6, 0xf4, 0xf6, 0xf4, 0xfb, 0xf5, 0xf0, 0xec, 0xed, 0xee, 0x02,
  0xf1, 0x04, 0xf5, 0x00, 0x00, 0x00, 0xf0, 0x01, 0xf1, 0xfe, 0xf4, 0xf3,
  0xfe, 0xfd, 0xfc, 0xf2, 0x02, 0xfa, 0xfd, 0x09, 0xe2, 0xe6, 0xf5, 0xd7,
  0x13, 0x1e, 0x18, 0x17, 0x12, 0x0b, 0x0b, 0x13, 0xd5, 0x03, 0x16, 0xfd,
  0x03, 0x0c, 0x0f, 0x15, 0x0c, 0x0c, 0x0c, 0x0c, 0xe5, 0x12, 0x0e, 0xdd,
  0xf9, 0xf3, 0xf4, 0x06, 0xf9, 0xfd, 0xf9, 0xf5, 0xe8, 0xe2, 0x02, 0xc7,
  0xed, 0xef, 0x01, 0xef, 0xff, 0xff, 0xf4, 0xf7, 0xe5, 0xee, 0xef, 0xf7,
  0xfc, 0xfa, 0xf9, 0xfd, 0x05, 0xf9, 0xfc, 0xf3, 0xea, 0xf6, 0xec, 0x11,
  0xf5, 0xe7, 0xe3, 0xe4, 0xec, 0xea, 0xef, 0xef, 0xe4, 0xe2, 0xf4, 0x04,
  0x04, 0xc7, 0xd1, 0xcb, 0xd5, 0xd5, 0xc7, 0xc5, 0xec, 0xcc, 0xdb, 0xfd,
  0x18, 0xff, 0xf4, 0xff, 0x0f, 0x06, 0xf5, 0x00, 0x16, 0x03, 0x14, 0x17,
  0xff, 0xff, 0x03, 0xfb, 0x03, 0xfd, 0xf6, 0xf7, 0x06, 0xf4, 0x01, 0x16,
  0x03, 0xf5, 0xec, 0xfc, 0xf8, 0x04, 0xef, 0xed, 0xf7, 0xee, 0xfc, 0x0a,
  0xfa, 0xf3, 0xf4, 0xfc, 0x04, 0xf6, 0xf1, 0xfd, 0xf9, 0xf7, 0xfd, 0xfd,
  0xf2, 0xfd, 0xf2, 0xee, 0xee, 0xfe, 0xfa, 0xef, 0x02, 0xf2, 0xee, 0xf5,
  0xfe, 0xf8, 0x01, 0xf4, 0xe4, 0xf6, 0x0a, 0x0d, 0xf2, 0xe9, 0xe7, 0xff,
  0x17, 0x12, 0x17, 0x16, 0x09, 0x16, 0x17, 0x0c, 0xe6, 0x15, 0x12, 0x07,
  0x0f, 0x14, 0x09, 0x14, 0x21, 0x0b, 0x1c, 0x14, 0x0c, 0xf8, 0x0f, 0xba,
  0xf9, 0x03, 0xfc, 0xfd, 0xf9, 0xf7, 0x01, 0x0a, 0xfe, 0xe9, 0xec, 0xf0,
  0xfb, 0x01, 0xf8, 0xf6, 0xfc, 0xf8, 0xfb, 0xf9, 0xfd, 0xe9, 0xf3, 0x06,
  0xf7, 0xfc, 0x06, 0x0b, 0x09, 0x0b, 0x02, 0xf6, 0xf6, 0xf0, 0xff, 0x09,
  0xfc, 0xf5, 0xeb, 0xf2, 0xfd, 0x02, 0xf8, 0xf5, 0x00, 0x00, 0xfb, 0x07,
  0xfd, 0xe9, 0xe1, 0xe1, 0xf5, 0xdf, 0xe6, 0xda, 0x03, 0xf6, 0xf6, 0x09,
  0x18, 0x00, 0x00, 0x02, 0x13, 0xf5, 0xfd, 0x07, 0x0d, 0x03, 0x16, 0x10,
  0x05, 0xf4, 0x09, 0xfa, 0x0a, 0xfe, 0xf1, 0xf2, 0x0e, 0x03, 0x08, 0x09,
  0xf1, 0xf8, 0xe4, 0xf9, 0xfc, 0xe3, 0x02, 0xfb, 0xfe, 0xec, 0xe6, 0x09,
  0x06, 0x01, 0xfd, 0x07, 0xfd, 0xfb, 0xf3, 0x00, 0xfc, 0xf6, 0x08, 0xf9,
  0xe4, 0xea, 0xe0, 0xed, 0xe5, 0xf6, 0xe7, 0xe5, 0xee, 0xdc, 0xee, 0x03,
  0xfc, 0x05, 0xf9, 0xf1, 0xf1, 0xf3, 0x0a, 0x08, 0xde, 0x07, 0xe7, 0x28,
  0x18, 0x1a, 0x12, 0x18, 0x00, 0x13, 0x1a, 0x03, 0xe3, 0x0b, 0x0b, 0xf7,
  0xf9, 0x12, 0x13, 0x1f, 0x1a, 0x1b, 0x11, 0x1c, 0x06, 0xf9, 0x0d, 0xcf,
  0xe3, 0xfd, 0xf1, 0xf5, 0xf4, 0xeb, 0xf3, 0x03, 0x01, 0xea, 0xeb, 0xfd,
  0xf1, 0xe9, 0xec, 0xee, 0xec, 0xf9, 0xef, 0xef, 0xf6, 0xe9, 0xda, 0x08,
  0xf1, 0x03, 0x04, 0x06, 0xf7, 0x03, 0xfa, 0x04, 0xff, 0xea, 0xf6, 0xfe,
  0xff, 0xfa, 0xed, 0xf4, 0x08, 0x01, 0x02, 0xf4, 0x0b, 0xe4, 0xf3, 0x0a,
  0x03, 0xf8, 0xf6, 0xee, 0x0a, 0xfb, 0xf6, 0xec, 0x0f, 0xfe, 0xfc, 0x0f,
  0x0f, 0xff, 0xfc, 0x02, 0x13, 0xf9, 0x05, 0x0b, 0x10, 0x0d, 0x02, 0x1e,
  0xeb, 0xf4, 0xe0, 0xee, 0xeb, 0xe9, 0xe5, 0xec, 0x00, 0xf1, 0xed, 0x04,
  0xeb, 0xf3, 0xf1, 0xee, 0xe0, 0xeb, 0xe9, 0xf1, 0x01, 0xf3, 0xef, 0x04,
  0xf4, 0xf2, 0x02, 0xff, 0xee, 0xf6, 0xf6, 0xef, 0x05, 0xf8, 0xfe, 0x02,
  0xf0, 0xf1, 0xf3, 0xf3, 0xf7, 0xf4, 0xe8, 0xe5, 0xcf, 0xec, 0xe8, 0x0c,
  0xf6, 0x06, 0x05, 0x01, 0xe7, 0xed, 0x02, 0x0c, 0xe2, 0x02, 0xf5, 0xfe,
  0x19, 0x1e, 0x20, 0x0a, 0x0e, 0x0e, 0x15, 0x11, 0xef, 0x12, 0x0c, 0xdb,
  0xfd, 0x05, 0x0c, 0x12, 0x08, 0x0f, 0x03, 0x12, 0x0e, 0xfd, 0xfe, 0x05,
  0xd6, 0xe7, 0xd9, 0xef, 0xf0, 0xe4, 0xf4, 0xe9, 0xf9, 0xdc, 0xe9, 0x04,
  0xf6, 0xf4, 0xef, 0xf9, 0xea, 0xfb, 0xea, 0xe0, 0xd9, 0xdf, 0xf6, 0xff,
  0x05, 0x00, 0xf9, 0xf5, 0xf5, 0xf8, 0x06, 0xf8, 0xfa, 0x06, 0x01, 0x03,
  0x00, 0xf9, 0xf3, 0x04, 0xf4, 0xfb, 0xf9, 0xf3, 0x00, 0xff, 0xfc, 0x0e,
  0xf7, 0xf0, 0xef, 0xf9, 0xfa, 0x01, 0xf2, 0xf6, 0x0e, 0x05, 0xfa, 0x07,
  0xff, 0xf1, 0xf4, 0xf6, 0x02, 0x03, 0xf3, 0x05, 0x16, 0x05, 0x0c, 0x0c,
  0xd6, 0xcf, 0xc5, 0xca, 0xdb, 0xd2, 0xd9, 0xda, 0xfe, 0xd3, 0xdd, 0xf3,
  0xee, 0xf7, 0xfa, 0xdf, 0xf5, 0xe5, 0xe6, 0xd7, 0xee, 0xe2, 0xe4, 0x0e,
  0xfd, 0xfc, 0xf5, 0x06, 0x01, 0x04, 0xf2, 0xfb, 0xeb, 0xfb, 0xfa, 0x13,
  0xfe, 0xf9, 0xfd, 0xed, 0x00, 0xf2, 0xeb, 0xf7, 0xd9, 0xf8, 0xfc, 0xe7,
  0x09, 0xf5, 0xfc, 0xf2, 0xf6, 0xfd, 0xf7, 0x08, 0xe0, 0xfb, 0xf6, 0xdd,
  0x05, 0x13, 0x12, 0x13, 0x17, 0x17, 0x0e, 0x18, 0xf2, 0x0b, 0x03, 0xdc,
  0xf0, 0xf5, 0x00, 0x0a, 0x0a, 0xff, 0x00, 0x06, 0xfc, 0xde, 0xf7, 0x15,
  0xfd, 0xed, 0xea, 0xfb, 0xf4, 0xf8, 0xef, 0xeb, 0xce, 0xe5, 0xf4, 0xf0,
  0x0e, 0x0c, 0x08, 0x0b, 0x01, 0x0b, 0x00, 0xf8, 0xf7, 0x0e, 0x0f, 0xf2,
  0x09, 0x00, 0x04, 0x03, 0x03, 0x07, 0x12, 0x09, 0xff, 0x11, 0x09, 0xfa,
  0x09, 0x00, 0x02, 0xf6, 0xfe, 0xff, 0xfe, 0x04, 0xf7, 0xfd, 0x09, 0x05,
  0x18, 0xf4, 0xff, 0x10, 0xfb, 0xfe, 0x03, 0x0c, 0x04, 0xfc, 0xfc, 0x03,
  0x07, 0xfc, 0x01, 0xf5, 0x13, 0x0e, 0xf8, 0xf9, 0x0a, 0xf7, 0x10, 0x13,
  0xf8, 0xf0, 0xf9, 0xf4, 0xf9, 0xfe, 0xf3, 0xe6, 0xe2, 0xed, 0xfa, 0x10,
  0x06, 0xf1, 0x07, 0xf6, 0x02, 0x06, 0xf2, 0xf0, 0xee, 0x04, 0x02, 0x22,
  0x08, 0x0f, 0xfc, 0x01, 0xf7, 0x06, 0x0c, 0xfc, 0xf7, 0x10, 0x0f, 0x09,
  0xf5, 0xfd, 0xff, 0xf9, 0xf5, 0x05, 0xfe, 0x07, 0xed, 0xf7, 0x00, 0xf2,
  0x00, 0x08, 0xf7, 0x06, 0xfa, 0xf8, 0x12, 0x10, 0xec, 0x04, 0xfc, 0xf9,
  0xf7, 0x01, 0x04, 0x0c, 0x00, 0x0a, 0x14, 0xff, 0xfa, 0xf3, 0xf0, 0xe5,
  0xeb, 0xfc, 0x07, 0x04, 0x0a, 0x04, 0xf9, 0x06, 0xed, 0xe2, 0xf9, 0xd8,
  0x0b, 0xfe, 0x0a, 0x01, 0x04, 0xfb, 0xfa, 0xfd, 0xf5, 0x07, 0x08, 0xd5,
  0x02, 0x08, 0x03, 0x10, 0x02, 0x11, 0x0d, 0x02, 0x00, 0x05, 0x03, 0xea,
  0xf6, 0xf8, 0x09, 0x00, 0x04, 0x01, 0x04, 0xff, 0x08, 0xfa, 0x01, 0x07,
  0xf7, 0xfb, 0x03, 0xfe, 0x00, 0x03, 0x06, 0xf8, 0xfb, 0xf9, 0xf4, 0x0b,
  0x0c, 0x0e, 0x1c, 0x14, 0x0d, 0x0a, 0x18, 0x15, 0x18, 0x0b, 0x13, 0x0a,
  0x03, 0x0d, 0x03, 0x02, 0x0f, 0x08, 0x01, 0x00, 0x13, 0xff, 0x0a, 0x12,
  0xfa, 0xfd, 0x06, 0xfb, 0x0f, 0x03, 0x00, 0xfe, 0xfa, 0x01, 0x0d, 0x14,
  0x09, 0xf8, 0x03, 0x02, 0x0a, 0xfe, 0x06, 0x06, 0xfa, 0x0f, 0xfe, 0x14,
  0x00, 0x00, 0x00, 0xfa, 0x0a, 0x0b, 0x02, 0x0e, 0x08, 0x00, 0x06, 0x21,
  0x04, 0x03, 0x04, 0xfe, 0x00, 0x0a, 0x0a, 0x0b, 0xff, 0xfe, 0xf8, 0x1c,
  0xf9, 0x06, 0xf2, 0xfc, 0xf6, 0x00, 0x08, 0x02, 0xef, 0xec, 0xed, 0x0b,
  0xf6, 0x00, 0xf5, 0xfd, 0xfd, 0xfc, 0x04, 0xf2, 0xe9, 0xdd, 0xee, 0xf1,
  0xf8, 0xfe, 0x0a, 0x0a, 0x01, 0x05, 0x00, 0x03, 0xee, 0xe3, 0xf8, 0xc2,
  0xfe, 0x01, 0x12, 0x0b, 0x01, 0x06, 0x03, 0x03, 0xff, 0xf7, 0x0a, 0xd9,
  0x13, 0x07, 0x00, 0x05, 0x0c, 0x11, 0x12, 0x0e, 0x0a, 0x01, 0x03, 0xfa,
  0xf8, 0xf8, 0xf9, 0x0c, 0x08, 0x02, 0xf9, 0xfe, 0x07, 0x07, 0x0b, 0x0e,
  0x0e, 0xfa, 0xfe, 0xef, 0xee, 0xf3, 0xeb, 0xf8, 0xfe, 0xff, 0xee, 0x04,
  0x15, 0x0c, 0x0f, 0x0d, 0x08, 0x05, 0x0b, 0x0e, 0x0b, 0x04, 0x12, 0x1d,
  0x0b, 0x08, 0xef, 0x01, 0x19, 0xfe, 0x0a, 0xfc, 0x18, 0x01, 0x11, 0x0b,
  0x07, 0x01, 0xf8, 0x00, 0x09, 0xee, 0x0d, 0x14, 0x17, 0x03, 0x06, 0x0f,
  0xfe, 0x05, 0x04, 0x0b, 0xfd, 0x0d, 0x0a, 0x05, 0x06, 0x07, 0xfc, 0xff,
  0x0f, 0x03, 0x0a, 0xfe, 0x0d, 0x04, 0x10, 0x0e, 0x0c, 0x15, 0xf7, 0x19,
  0xff, 0x0b, 0x04, 0xf6, 0x00, 0x0e, 0xfa, 0xfb, 0x01, 0xf9, 0xfc, 0x18,
  0x04, 0x01, 0xf2, 0xfe, 0xfb, 0xf7, 0x02, 0xef, 0xf4, 0x05, 0xfd, 0x1c,
  0x0c, 0xf6, 0xf4, 0xf7, 0x00, 0xf7, 0xfb, 0x00, 0xf7, 0x04, 0xf9, 0xfc,
  0x0b, 0x05, 0xff, 0x0a, 0xf9, 0xf9, 0x05, 0x01, 0x08, 0x0b, 0xfd, 0xfc,
  0x12, 0x04, 0x0b, 0x0f, 0x15, 0x14, 0x0c, 0x12, 0x0f, 0x13, 0x00, 0x0f,
  0x10, 0x0c, 0x0d, 0x15, 0x08, 0x17, 0x10, 0x15, 0x0f, 0x0d, 0x06, 0x0e,
  0x09, 0xfc, 0xfc, 0x02, 0x06, 0x04, 0xfb, 0xfd, 0x08, 0xf0, 0xf3, 0x0a,
  0x15, 0xfd, 0xf2, 0xf1, 0xec, 0xf2, 0xf8, 0xfb, 0x0b, 0xf3, 0xf6, 0x12,
  0x17, 0x0e, 0x1a, 0x00, 0x05, 0x13, 0x03, 0x08, 0x1c, 0x17, 0x16, 0x17,
  0x19, 0xf5, 0x03, 0xfc, 0x0a, 0x0e, 0x08, 0x08, 0x08, 0x05, 0x13, 0x20,
  0xf9, 0xdd, 0xe9, 0xfc, 0x09, 0xf5, 0xfb, 0xfe, 0x12, 0xf7, 0x04, 0x16,
  0xe7, 0xf7, 0xf9, 0xef, 0xfe, 0xff, 0xf4, 0xe7, 0xf5, 0xe9, 0xec, 0x19,
  0xdf, 0xe9, 0xeb, 0xeb, 0xe5, 0xe8, 0xf2, 0xe6, 0xfd, 0xee, 0xdd, 0x0c,
  0xe7, 0xe3, 0xdc, 0xef, 0xec, 0xe8, 0xe7, 0xe2, 0xf7, 0xee, 0xdc, 0x08,
  0xec, 0xea, 0xec, 0xf3, 0xe5, 0xf9, 0xf8, 0xf1, 0xf1, 0xf9, 0xdd, 0x08,
  0xdd, 0xf9, 0xf9, 0xf9, 0xf0, 0xed, 0xf3, 0xf3, 0xfd, 0xe1, 0xe1, 0x06,
  0xda, 0xda, 0xe4, 0xe5, 0xe2, 0xe1, 0xe2, 0xf2, 0xf4, 0xd2, 0xe3, 0x05,
  0x06, 0xde, 0xe3, 0xe3, 0xea, 0xec, 0xdd, 0xe1, 0xf2, 0xeb, 0xcc, 0x01,
  0x0c, 0xf8, 0xf8, 0x02, 0x06, 0x06, 0xf1, 0xf4, 0xfc, 0xe5, 0xe4, 0x06,
  0x0c, 0xfe, 0xf0, 0xed, 0xfb, 0xfa, 0xfd, 0xff, 0x11, 0xf3, 0x00, 0x14,
  0x10, 0xf1, 0xeb, 0xe3, 0x04, 0xf3, 0xe5, 0xf1, 0x0b, 0xf8, 0x0c, 0x11,
  0x1b, 0xfe, 0x0c, 0xf6, 0x06, 0x0e, 0x03, 0xfc, 0x0d, 0x0a, 0x05, 0x1c,
  0xfd, 0xf7, 0x05, 0xf4, 0xf3, 0xf4, 0xfc, 0x01, 0xfc, 0xfd, 0xf3, 0xfb,
  0xf3, 0x09, 0xf4, 0xef, 0xf5, 0x07, 0x03, 0xfc, 0xf4, 0xf4, 0xf8, 0xf5,
  0xf4, 0xfa, 0xfc, 0x03, 0x05, 0x09, 0xfe, 0xfe, 0xfd, 0xfb, 0xfd, 0xfb,
  0x0a, 0x0b, 0x06, 0xf7, 0x0f, 0xfd, 0x0d, 0xfb, 0xf1, 0x00, 0xfd, 0x00,
  0x03, 0x11, 0x10, 0xfe, 0x10, 0xfd, 0x01, 0x02, 0xf1, 0x01, 0x0a, 0xfe,
  0x06, 0x00, 0x07, 0x0d, 0x0a, 0x01, 0x0c, 0x0d, 0xfd, 0xf4, 0x0c, 0x05,
  0x02, 0xfd, 0x09, 0x06, 0xfa, 0x00, 0xfe, 0xfb, 0x04, 0xfc, 0xfc, 0xef,
  0x02, 0x06, 0xfa, 0x0b, 0x0d, 0x09, 0x04, 0xf9, 0xee, 0xff, 0x0d, 0xfb,
  0x0f, 0x06, 0xfd, 0x03, 0x00, 0x07, 0x10, 0x07, 0xf4, 0x03, 0x0a, 0xe4,
  0xfa, 0xee, 0xe6, 0xf2, 0xe5, 0xff, 0xf4, 0xf4, 0xf4, 0xed, 0xf0, 0xf7,
  0xf9, 0xe9, 0xf6, 0xf3, 0xf7, 0xf2, 0xf1, 0xe6, 0xf0, 0xea, 0xf7, 0xfa,
  0xf6, 0x01, 0x02, 0x07, 0x02, 0x04, 0x0a, 0xf5, 0x02, 0xfe, 0xf8, 0xfb,
  0x01, 0x03, 0xff, 0x0f, 0x02, 0x0a, 0x0d, 0x07, 0xf7, 0x08, 0x11, 0xf5,
  0xfc, 0x04, 0x02, 0xf7, 0x01, 0xfb, 0xf5, 0xf7, 0xfc, 0xf8, 0xf2, 0xff,
  0x01, 0xf8, 0xfc, 0xf4, 0xf3, 0xea, 0xf6, 0xf2, 0xfc, 0x05, 0xf0, 0xfd,
  0xff, 0xfc, 0x05, 0xfb, 0x04, 0x00, 0xef, 0xef, 0x00, 0xf5, 0x00, 0x04,
  0xf8, 0x03, 0x07, 0x01, 0xfd, 0x06, 0x08, 0x05, 0x16, 0x0c, 0x0d, 0x03,
  0x00, 0x0a, 0x01, 0x02, 0x0f, 0x0b, 0xfc, 0x0f, 0x16, 0x0a, 0xfb, 0xff,
  0x03, 0x0f, 0x08, 0x00, 0x09, 0xff, 0x01, 0x0e, 0x19, 0x0d, 0x08, 0xeb,
  0x00, 0xfc, 0x11, 0x04, 0x03, 0x02, 0x01, 0xfa, 0x02, 0x05, 0x05, 0xeb,
  0x01, 0x10, 0x03, 0x06, 0x01, 0x02, 0x02, 0x03, 0xf7, 0x03, 0x10, 0xda,
  0x01, 0xfc, 0x10, 0xfd, 0x07, 0x00, 0x0f, 0x0a, 0xf3, 0x02, 0x03, 0xd0,
  0xf3, 0xfe, 0x07, 0x08, 0xfa, 0xf9, 0xfe, 0xf7, 0xd8, 0xef, 0x04, 0xdd,
  0x03, 0xee, 0xf7, 0xfb, 0xfe, 0x03, 0xf3, 0xf5, 0xea, 0xfa, 0x00, 0xe3,
  0xe9, 0xf9, 0xf3, 0x03, 0xe8, 0xf5, 0xf4, 0xf0, 0xfd, 0xf6, 0xfa, 0xf3,
  0xf3, 0x06, 0x05, 0xf8, 0x04, 0xfd, 0xff, 0xf6, 0xfa, 0xef, 0xee, 0x00,
  0xf3, 0xf2, 0x06, 0xee, 0xfa, 0x06, 0xf8, 0x00, 0x04, 0xf2, 0x04, 0xfa,
  0x02, 0xf4, 0x05, 0x01, 0x02, 0xfc, 0xf1, 0xf2, 0xf6, 0xf3, 0xf9, 0xf5,
  0xf7, 0xf7, 0x01, 0x07, 0xf5, 0x04, 0x03, 0x03, 0x06, 0x02, 0xf6, 0x07,
  0xfa, 0xfd, 0x06, 0xf8, 0x03, 0x06, 0x07, 0x02, 0x20, 0xfd, 0xfe, 0xff,
  0x00, 0x07, 0xfc, 0x08, 0xfd, 0xfb, 0xf6, 0xf8, 0x12, 0xf7, 0xf9, 0xf5,
  0xf1, 0x02, 0x01, 0x05, 0xfc, 0xfa, 0x03, 0x0b, 0x12, 0xf2, 0x00, 0xe2,
  0x03, 0x08, 0x04, 0x0b, 0xfd, 0xfa, 0xfb, 0xfd, 0x04, 0xf1, 0xf8, 0xd6,
  0x00, 0x09, 0xfb, 0xfc, 0x05, 0x02, 0xfb, 0x0d, 0x02, 0xfc, 0x04, 0xb8,
  0xf4, 0x06, 0x00, 0x06, 0xfb, 0x03, 0x0c, 0x00, 0x02, 0xfc, 0xfb, 0xbe,
  0xf2, 0x09, 0xff, 0xff, 0x0f, 0xfc, 0xf8, 0xfa, 0xef, 0xf6, 0x05, 0xbf,
  0xfb, 0x07, 0xff, 0x08, 0xfe, 0x08, 0x05, 0xf3, 0xea, 0xfa, 0xff, 0xd9,
  0xfa, 0xf4, 0xf5, 0xf1, 0xf2, 0xf6, 0xfe, 0xf2, 0xeb, 0xfb, 0xf4, 0xe9,
  0xed, 0xf4, 0xf6, 0xef, 0xf6, 0xe9, 0xee, 0xe0, 0xe8, 0xd2, 0xdb, 0xff,
  0xf8, 0x05, 0xfc, 0xfc, 0xfe, 0xf5, 0xfd, 0xf9, 0x03, 0x00, 0x08, 0x02,
  0x0e, 0x03, 0x0e, 0x13, 0x02, 0x0c, 0x09, 0x0e, 0xfd, 0x11, 0x07, 0x0a,
  0xfc, 0xfe, 0x09, 0x0a, 0xff, 0x04, 0xf9, 0x0c, 0x19, 0x0f, 0x01, 0x06,
  0x06, 0xfe, 0x03, 0xfc, 0xfd, 0x01, 0xfa, 0x0b, 0x16, 0x08, 0x07, 0x09,
  0x09, 0xfa, 0xf7, 0x02, 0xfd, 0x09, 0x03, 0x0e, 0x11, 0x01, 0xff, 0x13,
  0x08, 0x0c, 0xfd, 0xfd, 0x08, 0xf9, 0x07, 0x0f, 0x0b, 0xff, 0xfd, 0xe6,
  0x01, 0xff, 0x03, 0x0a, 0x00, 0x08, 0xfe, 0xfb, 0xf9, 0xfc, 0x01, 0xd2,
  0xf4, 0xfd, 0x0a, 0xff, 0x11, 0xfc, 0x01, 0x09, 0xf7, 0xfc, 0xfe, 0xd9,
  0xfa, 0xfb, 0xff, 0x00, 0xfc, 0x0a, 0xf8, 0x02, 0x03, 0xfd, 0xf5, 0xee,
  0x03, 0x01, 0x08, 0xf8, 0x01, 0x05, 0x03, 0x01, 0xeb, 0xf7, 0xf9, 0xe0,
  0xff, 0xf7, 0xff, 0x07, 0xfb, 0xfa, 0xfa, 0x09, 0xf2, 0xff, 0x02, 0xde,
  0xe4, 0xed, 0xf1, 0x01, 0xf4, 0x04, 0x02, 0xf4, 0xf1, 0xf1, 0xf3, 0xed,
  0xdb, 0xc8, 0xd2, 0xcd, 0xdf, 0xd9, 0xcc, 0xd7, 0xdf, 0xc9, 0xca, 0xec,
  0xfc, 0x05, 0x01, 0x0c, 0xf9, 0xfb, 0x03, 0x0e, 0xfe, 0xfc, 0xf7, 0xf4,
  0x11, 0x0f, 0x08, 0x07, 0x12, 0x0f, 0x04, 0x17, 0x13, 0x16, 0x03, 0x00,
  0xf9, 0xf7, 0xfb, 0xfe, 0xfb, 0x01, 0xf8, 0xfa, 0x1e, 0xfe, 0xfa, 0xf7,
  0xeb, 0xf9, 0xee, 0xed, 0xf1, 0xfd, 0x03, 0x00, 0x1b, 0xfc, 0x03, 0xff,
  0x02, 0x01, 0xf9, 0xf0, 0xfd, 0xf4, 0xf1, 0xf9, 0x0f, 0x04, 0x09, 0xdb,
  0xf1, 0xf5, 0xe7, 0xf3, 0xfd, 0xef, 0xff, 0xed, 0x15, 0xf3, 0xf2, 0xdd,
  0xe4, 0xfa, 0xf2, 0xfc, 0x02, 0xf7, 0xfc, 0xfc, 0x0b, 0xe9, 0xf0, 0xf2,
  0xf5, 0x07, 0x05, 0xfb, 0x07, 0x09, 0xf5, 0xf5, 0x06, 0xfd, 0xf2, 0xe6,
  0xff, 0xfc, 0x01, 0x08, 0x08, 0x09, 0x09, 0x04, 0xf1, 0xf6, 0xf6, 0xf0,
  0x04, 0xfc, 0x08, 0x05, 0x0a, 0x01, 0x09, 0xff, 0xf9, 0xee, 0x03, 0x01,
  0x02, 0xfc, 0x01, 0xfb, 0x06, 0xf8, 0x00, 0xf4, 0x01, 0xee, 0xef, 0xf2,
  0xe2, 0xfa, 0xfa, 0xf7, 0xff, 0xf7, 0xfc, 0xee, 0xf8, 0xef, 0xfa, 0xfc,
  0x05, 0xff, 0x00, 0xf3, 0xf3, 0x00, 0xf3, 0xf8, 0xf1, 0xf9, 0xfd, 0xf6,
  0xf4, 0xf7, 0xf2, 0x01, 0xfd, 0xfe, 0x01, 0x06, 0x06, 0xf8, 0xe7, 0xf8,
  0xeb, 0xf5, 0xf6, 0xf7, 0xef, 0xef, 0x00, 0xfb, 0x25, 0x06, 0xf3, 0xf5,
  0xea, 0xec, 0xec, 0xea, 0xf7, 0xe6, 0xef, 0xe6, 0x31, 0xf8, 0xe9, 0xf6,
  0xf8, 0xf9, 0xe6, 0xf5, 0xe7, 0xe2, 0xec, 0xf7, 0x22, 0xec, 0xe9, 0x13,
  0xec, 0xec, 0xfc, 0xff, 0xf6, 0xf2, 0xf4, 0xea, 0x12, 0xf6, 0xf1, 0xf5,
  0xdf, 0xf3, 0xe7, 0xe4, 0xf1, 0xf2, 0xe5, 0xe7, 0x00, 0xd5, 0xf5, 0xf9,
  0xec, 0xf0, 0xe2, 0xe7, 0xe7, 0xee, 0xed, 0xf5, 0xe6, 0xee, 0xfa, 0x0e,
  0xfe, 0xef, 0xf2, 0xf0, 0xf1, 0xf0, 0xf5, 0xe9, 0xe4, 0xf9, 0xf4, 0xff,
  0x01, 0xf2, 0xef, 0xf1, 0xfa, 0xff, 0xf6, 0xef, 0xe1, 0xf1, 0xe8, 0x0d,
  0xfe, 0xff, 0xfa, 0xfe, 0xfc, 0x0b, 0xff, 0x04, 0xf0, 0x03, 0xf9, 0x0c,
  0x02, 0x01, 0xff, 0xf8, 0xfc, 0x04, 0xf2, 0x05, 0xfe, 0xfc, 0xf3, 0x03,
  0xfb, 0x01, 0xf2, 0xf8, 0xfc, 0xf5, 0xf3, 0xfa, 0xfc, 0xf7, 0xef, 0x24,
  0x10, 0x10, 0x20, 0x0a, 0x01, 0x22, 0x06, 0x0b, 0x08, 0x19, 0x06, 0x06,
  0xf3, 0xf6, 0x03, 0xff, 0x08, 0x09, 0xfc, 0xfe, 0xff, 0xee, 0x0d, 0xfd,
  0xf3, 0xf0, 0x01, 0xfc, 0x01, 0x04, 0xff, 0xfb, 0x02, 0xf2, 0xf9, 0x0b,
  0x04, 0xef, 0xe5, 0xf6, 0xf9, 0xf1, 0xee, 0xf2, 0x01, 0xeb, 0x0a, 0x24,
  0x0b, 0xf2, 0xfa, 0xfc, 0xe4, 0xe8, 0xf9, 0xf6, 0x11, 0xff, 0x04, 0x30,
  0x01, 0xeb, 0xf0, 0xf0, 0xf6, 0xf2, 0xef, 0xef, 0x0b, 0x05, 0x04, 0x16,
  0x0e, 0xf3, 0x08, 0x04, 0xfb, 0x01, 0xf7, 0xf4, 0xfa, 0xff, 0x12, 0x17,
  0x05, 0xf7, 0x03, 0x02, 0x00, 0x09, 0x02, 0x01, 0x02, 0xff, 0x0c, 0x02,
  0x00, 0x03, 0xf9, 0xf2, 0xf4, 0xf5, 0xff, 0xfc, 0xf4, 0xf7, 0x0c, 0x1d,
  0xf8, 0xf4, 0xf2, 0xf2, 0xfc, 0xfb, 0xf8, 0x00, 0xf5, 0x02, 0xf5, 0x19,
  0xfb, 0xf3, 0xfc, 0xfa, 0xfa, 0x02, 0x02, 0xfb, 0x06, 0x01, 0xf2, 0x11,
  0xff, 0xf7, 0xee, 0xff, 0xed, 0xed, 0xf6, 0xf7, 0x07, 0xfb, 0xed, 0x2b,
  0x12, 0xff, 0xf0, 0xf4, 0xf2, 0xed, 0xfb, 0xf5, 0x0f, 0x10, 0x04, 0x22,
  0x27, 0x1c, 0x1c, 0x0c, 0x1c, 0x26, 0x16, 0x13, 0x10, 0x29, 0x1b, 0x0a,
  0x0c, 0x0d, 0x10, 0x0c, 0x03, 0x19, 0x0a, 0x0c, 0x01, 0x06, 0x0d, 0x00,
  0x04, 0x09, 0x02, 0x06, 0x12, 0x0c, 0x05, 0x05, 0xe8, 0x0b, 0x0c, 0x17,
  0x07, 0xf9, 0xf5, 0xfd, 0x0b, 0x08, 0x08, 0x00, 0xf7, 0x08, 0x09, 0x17,
  0x09, 0xf6, 0xfa, 0x06, 0xf6, 0x03, 0xf9, 0xf8, 0xfe, 0x0f, 0xfb, 0x21,
  0x09, 0x05, 0x06, 0x0a, 0xfa, 0xf4, 0xf8, 0xfd, 0xfe, 0x12, 0x02, 0x1c,
  0x0f, 0x07, 0x01, 0x08, 0x09, 0xfd, 0x13, 0x00, 0x08, 0x1c, 0x06, 0x2c,
  0x11, 0x01, 0xfe, 0x0f, 0x00, 0x07, 0x11, 0xff, 0x12, 0x0c, 0x08, 0x17,
  0x09, 0x06, 0xf4, 0xfb, 0x08, 0x01, 0x02, 0xfc, 0xff, 0x05, 0x00, 0x20,
  0xff, 0xfc, 0xf0, 0x0b, 0xed, 0xfa, 0xfc, 0xf4, 0x03, 0x09, 0xfa, 0x19,
  0x00, 0xfe, 0xfb, 0xf8, 0x00, 0x08, 0xfa, 0x08, 0x0b, 0xfe, 0x00, 0x0a,
  0xf8, 0xfa, 0xf9, 0xfd, 0xfd, 0xfb, 0x03, 0xf5, 0x14, 0xfd, 0xfa, 0x07,
  0x0d, 0x01, 0xfb, 0xfb, 0xf3, 0x03, 0xff, 0xf8, 0x11, 0x0b, 0x14, 0x14,
  0x1b, 0x1a, 0x1b, 0x1c, 0x1b, 0x24, 0x1f, 0x0d, 0x10, 0x22, 0x23, 0x09,
  0x0d, 0x0a, 0x03, 0x07, 0xf5, 0x06, 0x0d, 0x0c, 0xff, 0x0b, 0x00, 0x06,
  0x13, 0x12, 0x07, 0xff, 0x06, 0x11, 0x04, 0x0e, 0x03, 0x04, 0x06, 0x06,
  0x05, 0x07, 0x0e, 0x07, 0xff, 0x07, 0x10, 0xf9, 0xf5, 0x12, 0x0b, 0x10,
  0x02, 0xfe, 0x06, 0x09, 0x03, 0x10, 0xfc, 0x01, 0xf3, 0x10, 0x00, 0x20,
  0x0d, 0xfc, 0x0a, 0x0c, 0x08, 0x03, 0xfc, 0x06, 0xf8, 0x03, 0x0b, 0x23,
  0x09, 0x05, 0x0c, 0x0b, 0x0b, 0x13, 0x10, 0x0c, 0x06, 0x12, 0x0e, 0x2a,
  0x08, 0x0d, 0x0e, 0x0c, 0x05, 0xfe, 0x04, 0x0c, 0xff, 0x10, 0x01, 0x24,
  0x09, 0x05, 0xfd, 0x0a, 0x00, 0x04, 0xfb, 0x06, 0x07, 0x07, 0x01, 0x11,
  0xfb, 0x01, 0xff, 0xfb, 0x01, 0xfd, 0xfa, 0xfa, 0x05, 0xff, 0xfb, 0xf7,
  0xf4, 0x06, 0x00, 0xf5, 0x00, 0xf8, 0x06, 0xf9, 0x13, 0xfa, 0xf9, 0xee,
  0xfe, 0x0a, 0xfe, 0x02, 0x09, 0x08, 0xff, 0xf6, 0x11, 0xfa, 0x12, 0xf0,
  0x0d, 0xfd, 0x0a, 0x0b, 0x0c, 0x0b, 0x0a, 0x03, 0x1d, 0x09, 0x08, 0x1a,
  0x16, 0x24, 0x25, 0x0c, 0x08, 0x19, 0x10, 0x0d, 0x17, 0x29, 0x16, 0x07,
  0xfc, 0xfe, 0x02, 0x04, 0x0d, 0xff, 0x06, 0xf4, 0xf8, 0xf7, 0xfc, 0xfd,
  0x0b, 0x08, 0x05, 0x07, 0xfa, 0x12, 0x0d, 0x05, 0x01, 0x05, 0x06, 0x06,
  0x11, 0x0a, 0x07, 0x00, 0x01, 0x08, 0xfc, 0xff, 0x0c, 0x13, 0xf6, 0x01,
  0x0b, 0x10, 0x03, 0x0b, 0x03, 0x04, 0x07, 0x04, 0xfe, 0x0e, 0xfe, 0x09,
  0xfe, 0xfc, 0xfb, 0xff, 0xfa, 0x0d, 0x0d, 0x0e, 0x07, 0x13, 0xf8, 0x13,
  0xfd, 0x06, 0x09, 0x0a, 0xfc, 0xfa, 0x0f, 0x0e, 0x0b, 0x09, 0x03, 0x0d,
  0x07, 0x07, 0x05, 0x07, 0x05, 0x01, 0xf5, 0x04, 0x02, 0xfa, 0xfd, 0x20,
  0xfa, 0x0b, 0x0a, 0xfc, 0xf5, 0x05, 0x05, 0x06, 0x06, 0x02, 0xfc, 0xfe,
  0xf8, 0x0e, 0x16, 0x0d, 0x0d, 0x05, 0xfd, 0x07, 0x0b, 0x09, 0x0b, 0xe8,
  0x03, 0xf9, 0x00, 0x0c, 0x09, 0xfa, 0x0c, 0x0d, 0x0f, 0x05, 0x0a, 0xf0,
  0xff, 0x0d, 0x06, 0x06, 0x02, 0x02, 0x06, 0x0d, 0x12, 0x0a, 0x14, 0x00,
  0x06, 0x14, 0x0d, 0x0d, 0x09, 0xfd, 0x08, 0x03, 0x0c, 0x12, 0x16, 0x16,
  0x0d, 0x15, 0x05, 0x07, 0x0b, 0x0a, 0xfe, 0x06, 0x05, 0x22, 0x09, 0x12,
  0xfe, 0x07, 0x0f, 0x12, 0x09, 0x10, 0x0f, 0x08, 0x00, 0x02, 0x16, 0x01,
  0xff, 0x10, 0x0a, 0x07, 0xff, 0x0e, 0x11, 0xfd, 0x04, 0x05, 0x04, 0xf5,
  0x0b, 0xff, 0x04, 0x08, 0xf9, 0x0e, 0xfc, 0x0c, 0xf7, 0x08, 0xf6, 0x04,
  0x11, 0xfb, 0x04, 0xfa, 0x0e, 0x06, 0x09, 0x0d, 0x00, 0x0d, 0xf9, 0x0b,
  0x09, 0xfc, 0x04, 0x0a, 0xfc, 0xfc, 0x11, 0x0f, 0xfe, 0x05, 0x04, 0x01,
  0xf4, 0x09, 0x03, 0x0f, 0x08, 0x07, 0x0c, 0xfd, 0x07, 0xff, 0xf8, 0xf7,
  0xfd, 0xf4, 0xef, 0x05, 0xfd, 0xf7, 0x06, 0x04, 0x06, 0xf7, 0xf6, 0xee,
  0xf6, 0x03, 0x02, 0xfa, 0x07, 0xfb, 0xf6, 0xf7, 0x0b, 0xfe, 0x08, 0xe6,
  0x01, 0x05, 0x03, 0x0d, 0x0d, 0x03, 0x0d, 0xff, 0x11, 0x09, 0x0d, 0xda,
  0x0a, 0x00, 0x03, 0xff, 0x0c, 0x11, 0x0b, 0x06, 0x14, 0x06, 0x1e, 0xed,
  0x08, 0x01, 0x05, 0x06, 0x05, 0xf3, 0x05, 0xfa, 0x0b, 0x0a, 0x12, 0xfd,
  0x10, 0x06, 0xfe, 0x04, 0x00, 0x09, 0xff, 0x02, 0x0c, 0x18, 0x17, 0x0f,
  0x0a, 0x18, 0x06, 0x0c, 0x0c, 0x10, 0x0f, 0x05, 0x03, 0x17, 0x08, 0x0d,
  0xf4, 0x06, 0xf2, 0x11, 0xef, 0x04, 0x01, 0x0d, 0x0f, 0x01, 0xfa, 0x01,
  0x00, 0xfc, 0xff, 0xf6, 0xea, 0xf7, 0x00, 0xfe, 0x04, 0x04, 0xdf, 0xf1,
  0xfc, 0x04, 0xee, 0xf3, 0xed, 0xf7, 0xfe, 0xfd, 0x0c, 0x05, 0xe2, 0xfc,
  0x08, 0x07, 0x02, 0xfd, 0xf7, 0x04, 0x03, 0x02, 0x03, 0xfb, 0xe9, 0xef,
  0xfb, 0xfd, 0xff, 0x0f, 0x06, 0x0e, 0xfe, 0xfe, 0x01, 0xf1, 0xff, 0xdf,
  0x0b, 0x01, 0x0d, 0xfe, 0xfd, 0xfc, 0x0f, 0xfe, 0xf9, 0x04, 0xf8, 0xe9,
  0xfa, 0xf7, 0xfb, 0x07, 0x0e, 0xfe, 0x01, 0x01, 0x00, 0x02, 0x0a, 0xf2,
  0xfc, 0xfd, 0xf5, 0x02, 0xf3, 0xfc, 0xf6, 0xf7, 0xf6, 0xf9, 0x07, 0xd5,
  0x05, 0xfc, 0x09, 0xfb, 0x06, 0xf9, 0x0a, 0x0f, 0x02, 0x0c, 0x0b, 0xdd,
  0x01, 0x13, 0x04, 0x02, 0x03, 0x00, 0x0a, 0x14, 0x08, 0xfb, 0x06, 0xfc,
  0x0e, 0x02, 0x01, 0xff, 0x08, 0xfb, 0x08, 0x04, 0x0b, 0x0c, 0x13, 0xfc,
  0x04, 0x05, 0x09, 0x0d, 0x07, 0x0d, 0x0f, 0x10, 0x0c, 0x0d, 0x0c, 0x03,
  0x0d, 0x0f, 0x10, 0x0c, 0x08, 0x17, 0x17, 0x12, 0x13, 0x12, 0x10, 0xf5,
  0xf2, 0xe9, 0xf8, 0xf8, 0xfd, 0xe7, 0xf1, 0xee, 0xf8, 0xe4, 0xf2, 0xfa,
  0xf2, 0xea, 0xec, 0xd3, 0xed, 0xee, 0xe1, 0xe3, 0xe5, 0xdc, 0xf3, 0x05,
  0xee, 0xe9, 0xd7, 0xe0, 0xe2, 0xda, 0xea, 0xe5, 0xed, 0xee, 0xea, 0xff,
  0xe9, 0xea, 0xe8, 0xe9, 0xdd, 0xf4, 0xf1, 0xe2, 0xf4, 0xed, 0xe9, 0xf6,
  0xed, 0xf0, 0xf0, 0xfa, 0xde, 0xf2, 0xfc, 0xea, 0xf6, 0xec, 0xe5, 0xe5,
  0xeb, 0x04, 0xee, 0x04, 0xef, 0xfb, 0x06, 0xfa, 0x01, 0xf5, 0xe6, 0xe6,
  0xfd, 0xfa, 0xf9, 0x0c, 0xff, 0xfa, 0xfc, 0x07, 0x01, 0xe4, 0xe4, 0xe8,
  0xe7, 0x03, 0xf2, 0x06, 0xf3, 0x01, 0x08, 0x05, 0xf7, 0xf3, 0xe0, 0xeb,
  0xe4, 0xf1, 0xf3, 0x03, 0xf7, 0xf3, 0x01, 0x04, 0xfc, 0xe0, 0xe3, 0xfe,
  0xf2, 0xf6, 0xf3, 0xfa, 0xfb, 0xf2, 0x0b, 0x01, 0xf5, 0xee, 0xf0, 0xf3,
  0xf2, 0x05, 0xf6, 0xfa, 0xf1, 0xfb, 0xf9, 0x02, 0x00, 0xee, 0xfb, 0xf4,
  0x00, 0xf6, 0xfd, 0xf9, 0xfd, 0x0b, 0xfa, 0x08, 0xfe, 0x03, 0xed, 0xef,
  0x05, 0x0c, 0x1a, 0x10, 0x12, 0x0c, 0x0d, 0x0b, 0x00, 0x08, 0x02, 0xf7,
  0xf4, 0xf6, 0xf9, 0xf3, 0xfd, 0xf4, 0xf8, 0xf2, 0xf0, 0xf6, 0xfb, 0xfb,
  0xf4, 0x0c, 0x07, 0xf3, 0x02, 0x09, 0x03, 0x04, 0xfb, 0xee, 0x02, 0xfe,
  0xf9, 0x01, 0x03, 0xf6, 0xff, 0x05, 0x0a, 0xfa, 0xfe, 0x03, 0x02, 0xf7,
  0xf9, 0xfe, 0x02, 0x0d, 0x0c, 0x10, 0x0a, 0xf9, 0xef, 0x04, 0x0b, 0xf7,
  0x08, 0x04, 0x0a, 0x07, 0x06, 0x03, 0x05, 0x0a, 0xfd, 0xfc, 0x08, 0xfd,
  0xfd, 0x06, 0x16, 0x01, 0x0f, 0x12, 0x13, 0x03, 0xe9, 0xfc, 0x01, 0xf5,
  0x14, 0x01, 0x18, 0x11, 0x0c, 0x08, 0x05, 0x0c, 0xed, 0x02, 0x13, 0xfb,
  0x0a, 0x0c, 0xff, 0x04, 0x0e, 0x08, 0x02, 0x12, 0xf8, 0x12, 0x00, 0xfe,
  0x09, 0x08, 0x09, 0x05, 0x03, 0x0d, 0x06, 0xff, 0xf0, 0x02, 0x03, 0xfb,
  0x05, 0x0d, 0xfd, 0xff, 0xfb, 0x0e, 0x05, 0x03, 0xed, 0x0b, 0x0c, 0xf6,
  0x01, 0xf7, 0xe6, 0x0b, 0xfc, 0xf5, 0xf5, 0x07, 0xf2, 0x0f, 0x06, 0xf8,
  0xf6, 0xf1, 0xe1, 0xe8, 0xec, 0xe0, 0xe1, 0xe4, 0xf8, 0xe0, 0xf3, 0xf0,
  0xeb, 0xf6, 0xf4, 0xe7, 0xf1, 0xfa, 0xee, 0xe8, 0xeb, 0xe7, 0xf8, 0xf6,
  0xfb, 0x0e, 0x07, 0xfe, 0x05, 0x09, 0x01, 0x00, 0xf0, 0x07, 0x08, 0x00,
  0x16, 0x1b, 0x0d, 0x0c, 0x11, 0x07, 0x0c, 0x08, 0xf1, 0x05, 0x0c, 0x04,
  0x0c, 0x13, 0x11, 0x13, 0x06, 0xfe, 0x15, 0x11, 0xff, 0x18, 0x14, 0xff,
  0x07, 0x06, 0x10, 0x01, 0xfc, 0xfb, 0x07, 0xfd, 0x06, 0x07, 0x0f, 0xfa,
  0xf7, 0x02, 0x04, 0x10, 0xfb, 0x0a, 0x0d, 0x0a, 0x13, 0xff, 0x08, 0xf9,
  0xfc, 0x0f, 0x02, 0x03, 0x04, 0xff, 0xf9, 0x0e, 0x12, 0xfb, 0xfb, 0xeb,
  0xf9, 0x0a, 0x0d, 0xfa, 0x0c, 0x05, 0x0c, 0x0c, 0x11, 0x0a, 0x0a, 0xe9,
  0xfa, 0x0d, 0x0b, 0xfd, 0x03, 0x08, 0xff, 0xfd, 0xec, 0xf8, 0x0c, 0xe7,
  0xf1, 0xfe, 0x00, 0xfc, 0x02, 0xfd, 0x01, 0x0a, 0xfb, 0xfb, 0x00, 0xd3,
  0xf1, 0x02, 0x01, 0x05, 0x12, 0x03, 0x02, 0xfb, 0xe6, 0xfe, 0xff, 0xda,
  0xed, 0x01, 0xff, 0xfc, 0xf5, 0xfe, 0xfe, 0xf9, 0xed, 0xfc, 0x01, 0xde,
  0xe2, 0xe5, 0xe1, 0xe9, 0xdf, 0xeb, 0xf2, 0xf3, 0xf0, 0xe7, 0xe0, 0xf9,
  0xec, 0xe1, 0xd0, 0xf3, 0xef, 0xe5, 0xdf, 0xe3, 0xf0, 0xed, 0xe7, 0xf3,
  0x0a, 0x0d, 0x09, 0x0d, 0xf4, 0xff, 0x04, 0x11, 0x04, 0x00, 0xff, 0xf9,
  0x0b, 0x19, 0x14, 0x0a, 0x17, 0x0f, 0x07, 0x1a, 0x12, 0x12, 0x17, 0x07,
  0x09, 0xf8, 0x0c, 0x0a, 0xff, 0x00, 0x0a, 0x11, 0x12, 0x03, 0xff, 0xed,
  0x03, 0xf8, 0x0d, 0xf8, 0x09, 0x06, 0xfb, 0x08, 0x1c, 0x0d, 0x0d, 0x02,
  0x0d, 0x06, 0x0a, 0xf7, 0x0c, 0xfd, 0x05, 0x09, 0x24, 0x05, 0x04, 0xf9,
  0xfc, 0x02, 0xfc, 0x0d, 0x0a, 0x0a, 0xfc, 0x04, 0x0a, 0x0e, 0x0c, 0xf6,
  0xf8, 0x07, 0x08, 0xfd, 0xfe, 0xfc, 0x07, 0x06, 0x00, 0xf4, 0x10, 0xd9,
  0x07, 0x03, 0x02, 0x02, 0x00, 0x05, 0xfe, 0x08, 0xf5, 0xf8, 0xfe, 0xc6,
  0xf8, 0xfd, 0x07, 0x0a, 0x01, 0xfb, 0xf8, 0x09, 0xf7, 0xfe, 0x03, 0xc8,
  0xf0, 0x09, 0x0b, 0xfb, 0xff, 0xfe, 0xfb, 0xfe, 0xe6, 0xf9, 0xf6, 0xc0,
  0xed, 0xfe, 0xff, 0xf8, 0xff, 0x08, 0x02, 0x0a, 0xec, 0xfa, 0x06, 0xc2,
  0xe7, 0xee, 0xe9, 0xf4, 0xff, 0xee, 0xfa, 0x03, 0xeb, 0xe3, 0xe8, 0xe9,
  0xef, 0xff, 0xe5, 0xf2, 0xef, 0xfa, 0xf9, 0xec, 0xf6, 0xf3, 0x00, 0xf8,
  0x02, 0x12, 0x0e, 0x0a, 0x01, 0x0a, 0x14, 0x08, 0x07, 0x0b, 0x09, 0xf3,
  0x0b, 0x02, 0x0e, 0x00, 0x04, 0x09, 0x03, 0x0e, 0x1d, 0x14, 0xfb, 0xf4,
  0x01, 0xfa, 0xff, 0x07, 0x01, 0x02, 0x0b, 0x0d, 0x1c, 0x07, 0x08, 0xfc,
  0x09, 0x05, 0x00, 0x0d, 0xf9, 0xfd, 0x0c, 0x11, 0x1d, 0x10, 0x0c, 0x14,
  0xf1, 0x03, 0x01, 0x02, 0x04, 0xf4, 0xfb, 0x0e, 0x1a, 0x10, 0xfd, 0xfb,
  0xfc, 0x05, 0x00, 0xef, 0xfb, 0xf7, 0x04, 0x02, 0x18, 0xfc, 0x09, 0xee,
  0x0f, 0x0d, 0x06, 0x02, 0xfa, 0xff, 0x04, 0x04, 0x03, 0x03, 0x0b, 0xf0,
  0x05, 0x0a, 0x0d, 0x0c, 0x03, 0x02, 0x01, 0x06, 0x07, 0x10, 0x00, 0x05,
  0x11, 0x05, 0x07, 0x04, 0xf3, 0x04, 0xfc, 0xf7, 0xfe, 0x06, 0x0a, 0x09,
  0x01, 0x00, 0x0a, 0xf7, 0x03, 0xff, 0xf7, 0x06, 0xf7, 0xf5, 0xf8, 0xed,
  0x07, 0x08, 0x0e, 0xff, 0x02, 0xf8, 0xff, 0xfb, 0xee, 0xff, 0xf5, 0xf6,
  0xf1, 0xfa, 0xe7, 0xff, 0xf3, 0xee, 0xf6, 0x06, 0xea, 0xf5, 0xf4, 0xe0,
  0xe1, 0xe1, 0xf3, 0xee, 0xf7, 0xe0, 0xef, 0xe3, 0xf6, 0xcf, 0xe7, 0xf0,
  0x12, 0x0b, 0x13, 0x16, 0x0f, 0x12, 0x13, 0x15, 0xfb, 0x04, 0x10, 0x08,
  0x03, 0xfc, 0xfc, 0x07, 0x10, 0x08, 0xfa, 0x0b, 0x0b, 0x05, 0x01, 0x07,
  0x01, 0x06, 0x04, 0xfd, 0xfb, 0xfa, 0xf7, 0xf8, 0x0e, 0x0a, 0x0c, 0x02,
  0xf0, 0xf1, 0xf8, 0xf9, 0x02, 0xfa, 0xfe, 0xf6, 0x2f, 0xfd, 0xf7, 0x06,
  0x03, 0xf0, 0xe8, 0xf2, 0xf4, 0xe9, 0xf1, 0xee, 0x30, 0x00, 0xf7, 0x1b,
  0x00, 0xfb, 0xf6, 0xf1, 0xe6, 0xe8, 0xfd, 0xef, 0x26, 0x0c, 0x0a, 0x33,
  0x19, 0x07, 0xfa, 0xfe, 0xfd, 0x01, 0xfd, 0xfd, 0x15, 0x1d, 0xff, 0x2c,
  0x11, 0xfd, 0xff, 0x0e, 0x05, 0xff, 0x0f, 0x03, 0x0d, 0x18, 0x07, 0x27,
  0x03, 0x05, 0x09, 0x0b, 0x02, 0xf7, 0xf9, 0x03, 0x09, 0x11, 0x0d, 0x2a,
  0x07, 0x06, 0x0b, 0x0e, 0x06, 0xfd, 0xfb, 0x11, 0x04, 0x11, 0xf8, 0x0b,
  0xfe, 0xff, 0x0a, 0x09, 0xfc, 0x07, 0xfd, 0x07, 0x0b, 0x15, 0xfa, 0x08,
  0xf0, 0xf1, 0xf7, 0xfd, 0xfa, 0xf8, 0x07, 0x0b, 0x09, 0xee, 0xf3, 0x05,
  0xe5, 0xd1, 0xd3, 0xd7, 0xdc, 0xe0, 0xdb, 0xeb, 0xd7, 0xd5, 0xd7, 0xf2,
  0x11, 0x03, 0x0d, 0x10, 0xf7, 0x01, 0x15, 0x17, 0x06, 0x12, 0x05, 0xfd,
  0xf1, 0x04, 0x00, 0xfe, 0xff, 0x0a, 0x06, 0xfb, 0x12, 0x00, 0x0d, 0xf4,
  0xf9, 0xf3, 0xf6, 0xf8, 0xfb, 0xf8, 0xef, 0x03, 0x16, 0xfb, 0xf0, 0x13,
  0x03, 0xf1, 0xee, 0x02, 0xf9, 0xf9, 0xf5, 0xf1, 0x0c, 0xfe, 0x0a, 0x31,
  0xf4, 0xf3, 0xea, 0xeb, 0xf4, 0xef, 0xfb, 0xeb, 0x0e, 0x0d, 0xfe, 0x3e,
  0xf9, 0xfc, 0xeb, 0xf9, 0xec, 0xff, 0xfc, 0xf2, 0x06, 0x04, 0x08, 0x32,
  0x0d, 0x01, 0xfb, 0x0b, 0xfb, 0x09, 0x08, 0xfc, 0x14, 0x09, 0x14, 0x14,
  0x03, 0x0c, 0x09, 0x03, 0x01, 0x0c, 0x02, 0xfc, 0x0a, 0x17, 0x0d, 0x20,
  0xfa, 0xf9, 0xf7, 0xfa, 0x0a, 0x06, 0xff, 0x0e, 0x0b, 0x06, 0x02, 0x07,
  0xff, 0xf8, 0x03, 0x0c, 0xfd, 0xf8, 0x08, 0xfd, 0x17, 0x09, 0xf8, 0x09,
  0xf4, 0xfb, 0xea, 0xfb, 0xfa, 0xf3, 0xf7, 0x00, 0x07, 0xeb, 0xf7, 0x10,
  0xee, 0xf2, 0xf9, 0xfb, 0xfa, 0xea, 0xe9, 0xf0, 0xf7, 0xe0, 0xea, 0xfc,
  0xe8, 0xf9, 0xe9, 0xf5, 0xe9, 0xf6, 0xe7, 0xe7, 0xe7, 0xfb, 0xf2, 0xef,
  0xf1, 0xfe, 0xed, 0xf6, 0xf0, 0xed, 0xff, 0xfe, 0xff, 0xfb, 0x01, 0xf8,
  0xed, 0xf1, 0xf4, 0xfd, 0x05, 0xf8, 0x01, 0x00, 0xfe, 0xf0, 0xef, 0xed,
  0xdf, 0xf4, 0xef, 0xe8, 0xf6, 0xf3, 0xec, 0xee, 0xf6, 0xf0, 0xea, 0xf2,
  0xfb, 0xfa, 0xf0, 0xf6, 0xeb, 0xfd, 0x01, 0xf8, 0x0c, 0xfe, 0xfd, 0x0b,
  0xf5, 0xef, 0xec, 0xf1, 0xf1, 0xee, 0x05, 0xfc, 0x0d, 0x01, 0xfa, 0x15,
  0x03, 0x0e, 0xf4, 0x08, 0xf1, 0x00, 0x09, 0x07, 0x02, 0xfe, 0x06, 0x1d,
  0xfa, 0x09, 0xfc, 0x0e, 0x07, 0x0d, 0x12, 0xff, 0x01, 0x0a, 0xf9, 0xf9,
  0xf9, 0xf6, 0x09, 0x06, 0x03, 0xf9, 0x0b, 0x05, 0x1c, 0xf6, 0x08, 0xe3,
  0x03, 0x01, 0x0e, 0x0a, 0x0a, 0xf7, 0xfa, 0x08, 0x15, 0xf7, 0x0b, 0xf0,
  0xf4, 0xfd, 0x07, 0xfb, 0x04, 0x04, 0xf6, 0xf3, 0x0b, 0xf4, 0x08, 0x0f,
  0xf4, 0xed, 0xee, 0xf9, 0x00, 0xeb, 0xef, 0xee, 0xe6, 0xf5, 0xfe, 0xfe,
  0x04, 0xf1, 0xec, 0x03, 0xea, 0xf4, 0xee, 0x06, 0xec, 0xfb, 0xfc, 0xe6,
  0xf2, 0xea, 0xfb, 0x03, 0xfa, 0xfb, 0xf3, 0xfc, 0xf2, 0x0a, 0xf6, 0xfb,
  0x0c, 0x19, 0x0d, 0x09, 0x12, 0x0f, 0x17, 0x16, 0xf6, 0x05, 0x0b, 0x00,
  0x07, 0x02, 0xfe, 0x04, 0x0d, 0x08, 0xf5, 0xfb, 0xf2, 0x0a, 0x15, 0xfa,
  0xfb, 0xed, 0xfb, 0xff, 0x00, 0xf3, 0xf1, 0xeb, 0xfa, 0xf8, 0x0a, 0xdf,
  0xed, 0xec, 0xea, 0xe6, 0xeb, 0xed, 0xf9, 0xfe, 0x07, 0xeb, 0xfc, 0xe9,
  0xe4, 0xfa, 0xf4, 0xe7, 0xfb, 0xed, 0xf6, 0xf5, 0xfa, 0xfb, 0xf9, 0xd6,
  0xf6, 0x04, 0x07, 0xf7, 0xfc, 0xf2, 0xf7, 0xff, 0x0f, 0xfb, 0xfb, 0xb1,
  0xf4, 0xfa, 0xf2, 0xf9, 0x09, 0x00, 0xfd, 0x0a, 0x07, 0x04, 0x04, 0x9f,
  0xfb, 0xfe, 0x02, 0x00, 0x00, 0xf5, 0xff, 0x00, 0x15, 0xe6, 0x07, 0xd4,
  0x08, 0x0a, 0x09, 0xf6, 0xfe, 0xfe, 0x02, 0x04, 0x10, 0xf6, 0x13, 0xe8,
  0xfa, 0x0a, 0x0b, 0xfc, 0x0b, 0xff, 0x03, 0x02, 0x06, 0x04, 0x0a, 0xd4,
  0x06, 0x08, 0x02, 0xfa, 0xfe, 0x00, 0x01, 0xfd, 0xf1, 0x0a, 0x08, 0xe3,
  0x04, 0x10, 0x00, 0x03, 0x0d, 0xff, 0x0a, 0x0b, 0x02, 0x15, 0x02, 0xee,
  0xeb, 0xf8, 0xf6, 0x01, 0x03, 0xed, 0x08, 0x05, 0xfb, 0x03, 0x05, 0xfb,
  0x1a, 0x14, 0x19, 0x0a, 0x17, 0x18, 0x18, 0x14, 0x06, 0x1b, 0x0f, 0xfd,
  0x0f, 0x04, 0x0a, 0x11, 0x07, 0x09, 0x08, 0x03, 0x03, 0x0e, 0x17, 0xfe,
  0xfc, 0x08, 0x04, 0x0d, 0x0c, 0x03, 0xfd, 0xfd, 0x02, 0xfb, 0x05, 0xf0,
  0xf5, 0xf1, 0xf9, 0x02, 0x0b, 0x00, 0xf9, 0x01, 0x0c, 0xf6, 0xfb, 0xd9,
  0xeb, 0xf8, 0xf8, 0xe9, 0x00, 0xf8, 0xf8, 0xf2, 0x01, 0xe8, 0xfc, 0xc5,
  0xf4, 0xfb, 0xf2, 0xf3, 0xef, 0xf6, 0xf5, 0xf0, 0x0b, 0xe4, 0x06, 0xbb,
  0xea, 0xf8, 0x07, 0xf7, 0xf7, 0xf1, 0x01, 0xf1, 0x03, 0xe5, 0xfb, 0xe1,
  0x08, 0x08, 0x0a, 0xfe, 0x01, 0x01, 0xf9, 0xff, 0xf4, 0x05, 0x18, 0xdd,
  0x08, 0x07, 0x0d, 0xff, 0xfb, 0x07, 0x03, 0xf9, 0x07, 0x10, 0x02, 0xdf,
  0x05, 0x04, 0x00, 0x08, 0xfb, 0x02, 0x07, 0x08, 0xfe, 0x07, 0x07, 0x05,
  0x03, 0xf9, 0x02, 0x03, 0x0a, 0x07, 0xfe, 0x00, 0xea, 0x0e, 0x07, 0xf4,
  0xf6, 0xfc, 0x02, 0xfb, 0xfe, 0x07, 0xfe, 0x0b, 0xfd, 0xf5, 0xef, 0xff,
  0xe6, 0xe2, 0xea, 0xf3, 0xf5, 0xf2, 0xf5, 0xf9, 0xfc, 0xd0, 0xde, 0xf5,
  0x0b, 0x06, 0x0a, 0x09, 0x0a, 0x03, 0x15, 0x1d, 0x19, 0x08, 0xff, 0x09,
  0xfe, 0x02, 0x13, 0x07, 0x11, 0x07, 0x02, 0x15, 0x10, 0x11, 0x07, 0x03,
  0x06, 0xff, 0x0e, 0x05, 0x0c, 0xfd, 0x01, 0x11, 0x0d, 0x0d, 0x07, 0xfe,
  0x0a, 0x0a, 0x0f, 0x0c, 0x07, 0x04, 0xfe, 0x01, 0xf0, 0xf7, 0x00, 0xf9,
  0xeb, 0xf8, 0xfb, 0xfe, 0xf6, 0xf8, 0xef, 0xf0, 0xf4, 0xfd, 0x04, 0xd6,
  0xf1, 0xfa, 0xf3, 0xed, 0xfc, 0xf3, 0xf1, 0xf7, 0xf9, 0xfa, 0x0c, 0xd9,
  0x04, 0xf2, 0xff, 0xf3, 0xed, 0xf9, 0xf8, 0xfe, 0xfa, 0xf8, 0x06, 0xe7,
  0x11, 0x0a, 0xff, 0xff, 0x01, 0xfd, 0x04, 0x04, 0x0b, 0x11, 0x13, 0xd3,
  0x08, 0x03, 0x17, 0x06, 0x01, 0x02, 0x07, 0xff, 0xfc, 0x01, 0xfc, 0x06,
  0xfb, 0x06, 0xf7, 0xfe, 0x0d, 0x05, 0xfb, 0x0c, 0xf9, 0xfb, 0x0c, 0x1a,
  0x05, 0x05, 0xf6, 0x02, 0xfd, 0xfd, 0xff, 0x02, 0x03, 0xfa, 0xf9, 0xfb,
  0xef, 0xfe, 0xef, 0x02, 0xf8, 0xf3, 0x08, 0xf9, 0xf5, 0xf7, 0xfe, 0x03,
  0xe0, 0xe5, 0xf0, 0xf7, 0xef, 0xf3, 0xed, 0xe8, 0xe9, 0xc5, 0xdf, 0xf5,
  0x0f, 0xfb, 0x03, 0x0d, 0xfa, 0x05, 0x0b, 0x0e, 0x0e, 0x00, 0x07, 0xf1,
  0x02, 0x0f, 0x00, 0x0f, 0x07, 0x10, 0x0b, 0xfd, 0xfe, 0x0a, 0x02, 0xfb,
  0x08, 0xfb, 0x03, 0xfe, 0xf9, 0x02, 0x01, 0x05, 0x14, 0x05, 0xfc, 0x02,
  0x0c, 0x0b, 0x01, 0xfe, 0x0b, 0xfe, 0xff, 0x0a, 0x09, 0x04, 0x01, 0x00,
  0xfc, 0x08, 0x08, 0x04, 0xfe, 0x00, 0xfc, 0x06, 0x06, 0x01, 0x02, 0xfa,
  0x03, 0x05, 0x03, 0xfd, 0xfb, 0xf9, 0xff, 0xf5, 0x06, 0xff, 0x01, 0xf5,
  0x02, 0xf3, 0x05, 0xfc, 0xee, 0xf6, 0x00, 0xff, 0xf9, 0x0a, 0x05, 0xef,
  0xff, 0xf7, 0x01, 0x09, 0x04, 0x06, 0x00, 0xf6, 0x0b, 0x07, 0xfe, 0x1a,
  0x03, 0x09, 0x0e, 0xff, 0x0a, 0x06, 0x08, 0xfd, 0x0e, 0x01, 0x00, 0x1b,
  0x02, 0xfc, 0x08, 0x11, 0x00, 0x06, 0x10, 0xfe, 0x02, 0x05, 0x0a, 0x04,
  0xf7, 0x01, 0xff, 0xfd, 0xf9, 0x08, 0xfe, 0xfa, 0x00, 0xf8, 0xfd, 0x05,
  0xe8, 0xf4, 0xee, 0x03, 0x03, 0x04, 0xff, 0xfd, 0xfa, 0xe7, 0xe7, 0xfc,
  0xe6, 0xdb, 0xe9, 0xdf, 0xe5, 0xe1, 0xdd, 0xdf, 0xdf, 0xdb, 0xdc, 0xf1,
  0x09, 0x0f, 0x0f, 0x01, 0xfc, 0x05, 0x09, 0x05, 0xfb, 0x13, 0x0a, 0x03,
  0x07, 0x08, 0x14, 0x0c, 0x04, 0x0a, 0x01, 0x03, 0x0f, 0x01, 0x15, 0xf8,
  0xfd, 0x03, 0x07, 0x04, 0x05, 0x02, 0x0b, 0x0e, 0xf9, 0x0b, 0x13, 0x0e,
  0x06, 0x05, 0x03, 0xfd, 0x03, 0x0b, 0x0b, 0x02, 0x0c, 0x02, 0x06, 0x12,
  0x03, 0x01, 0xfd, 0x02, 0x02, 0x09, 0x08, 0x06, 0x0a, 0x12, 0x06, 0x17,
  0x01, 0x08, 0x07, 0xf9, 0xfe, 0x05, 0x0f, 0x00, 0x08, 0x04, 0x06, 0x14,
  0x07, 0xf9, 0xf8, 0xfb, 0xf5, 0xf9, 0x03, 0x05, 0x03, 0x02, 0x14, 0x0e,
  0xfe, 0xfc, 0xfb, 0xf1, 0xfc, 0xfc, 0xf4, 0xf3, 0x05, 0xf9, 0xfa, 0x1b,
  0xfd, 0xfc, 0xf2, 0x01, 0xfa, 0x00, 0xf8, 0x05, 0x05, 0x05, 0xfb, 0x06,
  0xf7, 0xfa, 0xf6, 0xfe, 0xf9, 0xfb, 0x04, 0xfc, 0x01, 0x01, 0xf5, 0x15,
  0xfe, 0xf5, 0xed, 0x03, 0xef, 0x03, 0xf0, 0xfe, 0xf1, 0xfe, 0xf2, 0x00,
  0xf1, 0xff, 0xfa, 0xf9, 0xee, 0xed, 0xf7, 0xed, 0xf1, 0xf1, 0xef, 0xff,
  0xf6, 0xe2, 0xe1, 0xe9, 0xe6, 0xe2, 0xe1, 0xd8, 0xe7, 0xec, 0xf1, 0xf1,
  0xf8, 0xf8, 0xfb, 0x0b, 0xec, 0x13, 0x0f, 0x0d, 0x06, 0x14, 0xfa, 0xec,
  0x09, 0x12, 0x07, 0x1a, 0x00, 0x09, 0x05, 0x17, 0x07, 0x0c, 0xf2, 0xed,
  0x02, 0x11, 0x13, 0x09, 0x12, 0x0d, 0x15, 0x0e, 0x0c, 0x0c, 0x06, 0xf3,
  0x0d, 0x12, 0x12, 0x07, 0x1b, 0x02, 0x0b, 0x17, 0x0a, 0x0a, 0x0f, 0xfb,
  0x0a, 0x19, 0x12, 0x05, 0x0c, 0x0d, 0x12, 0x10, 0x05, 0x0e, 0x0f, 0xf2,
  0x05, 0x0e, 0x19, 0x04, 0x11, 0x15, 0x08, 0x16, 0x11, 0x1b, 0x11, 0xf2,
  0xf8, 0x02, 0x08, 0x09, 0x00, 0x03, 0x0c, 0xff, 0x05, 0x11, 0x0f, 0xfe,
  0xf7, 0x0d, 0x0b, 0x09, 0xfc, 0xfa, 0xfb, 0x0e, 0xfd, 0x11, 0x09, 0xf9,
  0xf2, 0x0a, 0xf6, 0x00, 0x07, 0x02, 0x0a, 0x06, 0xfb, 0x12, 0xfd, 0x07,
  0xf3, 0xe8, 0xfb, 0xfa, 0xf6, 0xf8, 0xfe, 0xea, 0xf2, 0xfe, 0xf3, 0x01,
  0xef, 0xed, 0xf9, 0xfa, 0xfa, 0xee, 0xf7, 0xf5, 0xe8, 0xda, 0xea, 0xed,
  0xf3, 0xf6, 0xef, 0x00, 0xea, 0xf9, 0xef, 0xfa, 0xe7, 0xe6, 0xe2, 0xf7,
  0xf3, 0xf0, 0xee, 0xf1, 0xef, 0xf2, 0xe3, 0xf1, 0xf9, 0xf9, 0xf4, 0xe9,
  0x08, 0xf7, 0x01, 0xf3, 0x0a, 0x02, 0xf5, 0xf6, 0x0d, 0xfd, 0x03, 0x03,
  0x0b, 0xf6, 0xf1, 0xf7, 0x02, 0xe8, 0xfb, 0xf6, 0xff, 0xfd, 0xf8, 0x0b,
  0xed, 0xdf, 0xd9, 0xe8, 0xe9, 0xe7, 0xda, 0xeb, 0xfc, 0xf2, 0xef, 0x01,
  0xdf, 0xde, 0xdc, 0xd3, 0xdc, 0xda, 0xdd, 0xe3, 0xfc, 0xdb, 0xe3, 0xff,
  0xe7, 0xe4, 0xe0, 0xd6, 0xdd, 0xe4, 0xd4, 0xcb, 0xfd, 0xc6, 0xdc, 0xef,
  0xd9, 0xda, 0xdf, 0xd9, 0xd9, 0xe2, 0xd8, 0xde, 0xfd, 0xdd, 0xe2, 0xfc,
  0xe0, 0xdb, 0xec, 0xe6, 0xdc, 0xe4, 0xd8, 0xdf, 0xee, 0xda, 0xe4, 0xfd,
  0xdb, 0xe8, 0xdd, 0xd6, 0xec, 0xe9, 0xe2, 0xdc, 0xf8, 0xef, 0xe4, 0xf2,
  0xe2, 0xf3, 0xf0, 0xd7, 0xe7, 0xe8, 0xe1, 0xd2, 0xee, 0xd1, 0xe5, 0x03,
  0x04, 0xfd, 0x02, 0xfc, 0x09, 0xf8, 0xf6, 0xfe, 0xfd, 0xf6, 0x01, 0xfe,
  0x07, 0xe1, 0xe5, 0xf6, 0xea, 0xf9, 0xeb, 0xfd, 0xf7, 0xf7, 0xff, 0x09,
  0xf5, 0xee, 0xf0, 0xf0, 0xeb, 0xe0, 0xea, 0xe8, 0x03, 0xe3, 0xea, 0x03,
  0xf5, 0xff, 0xf7, 0x01, 0xf8, 0xf3, 0xf9, 0xf7, 0x0b, 0xf5, 0xf4, 0x00,
  0x0a, 0x03, 0xfb, 0x00, 0xfa, 0x05, 0xfa, 0xf9, 0xff, 0xf2, 0x06, 0x08,
  0x03, 0xfa, 0x0d, 0xfc, 0x09, 0x0c, 0x03, 0xf9, 0x08, 0x0b, 0x08, 0x01,
  0xfa, 0x03, 0xf4, 0xf5, 0xf8, 0xfd, 0xf8, 0xfc, 0x0a, 0xee, 0xfa, 0xf6,
  0x07, 0x01, 0xf7, 0xff, 0xf8, 0x04, 0xed, 0xff, 0xf6, 0xf9, 0x04, 0x01,
  0xfd, 0xfa, 0x00, 0x03, 0x04, 0x05, 0xff, 0xfa, 0xeb, 0xfe, 0xf8, 0x0d,
  0xf3, 0xe9, 0xf7, 0xf8, 0xfd, 0xfd, 0xf3, 0xff, 0xed, 0xfe, 0xf5, 0x0a,
  0xfa, 0xff, 0x06, 0xf7, 0x08, 0xf8, 0xfa, 0xf8, 0xd9, 0xf1, 0xf6, 0x19,
  0xfe, 0xf5, 0xff, 0x03, 0x00, 0xf7, 0xef, 0x0a, 0xe7, 0xf2, 0x02, 0x1d,
  0x0f, 0x06, 0x01, 0xf6, 0xf5, 0xfb, 0xfa, 0x0b, 0xee, 0x06, 0x02, 0x1c,
  0x0a, 0x07, 0x10, 0x01, 0xfa, 0x09, 0x05, 0x09, 0xfc, 0x15, 0xfe, 0x15,
  0x06, 0xfe, 0x04, 0x0a, 0x12, 0x01, 0x04, 0x07, 0x01, 0x07, 0xfc, 0x07,
  0x11, 0x0a, 0x0b, 0xfd, 0x00, 0x08, 0xf0, 0xfd, 0x04, 0x05, 0xfc, 0x0f,
  0x11, 0x03, 0x10, 0x03, 0xfc, 0x08, 0x0f, 0xff, 0x0b, 0x00, 0x0e, 0xfe,
  0xfa, 0x05, 0x01, 0x08, 0xf9, 0x0a, 0x01, 0x0e, 0x0b, 0xfe, 0x00, 0xff,
  0x01, 0x03, 0x01, 0x0f, 0x05, 0x0a, 0x00, 0x01, 0x07, 0x0b, 0x08, 0x0c,
  0x00, 0x02, 0x09, 0x0c, 0xfc, 0xfe, 0x08, 0x02, 0xed, 0xff, 0xf9, 0x05,
  0x0a, 0x04, 0x0d, 0x09, 0x0b, 0x0d, 0x05, 0x11, 0xfc, 0xfd, 0x06, 0x11,
  0xfa, 0x03, 0x01, 0x09, 0x09, 0x0b, 0xf9, 0xf7, 0x04, 0x00, 0xfe, 0x03,
  0xf1, 0x07, 0xfc, 0x05, 0x03, 0x00, 0xf7, 0xfa, 0xea, 0xf1, 0xec, 0x1c,
  0xfc, 0xfe, 0x02, 0xfc, 0xfa, 0xf7, 0x02, 0x06, 0xd1, 0xf3, 0xf7, 0x31,
  0xfb, 0xf9, 0xef, 0xf7, 0xfc, 0xfc, 0xf4, 0xf5, 0xea, 0xf8, 0xe9, 0x36,
  0xf5, 0xef, 0xf5, 0x02, 0xf8, 0x09, 0xfa, 0x00, 0xf6, 0xfb, 0xe9, 0x40,
  0xfd, 0xf0, 0xf2, 0x02, 0xfe, 0x01, 0xfd, 0x04, 0xfd, 0x01, 0xf5, 0x39,
  0x0b, 0x04, 0xf7, 0x05, 0x07, 0x08, 0x00, 0x07, 0x04, 0x14, 0xf6, 0x3b,
  0x07, 0x0f, 0x19, 0xfc, 0x15, 0x14, 0x12, 0xfe, 0x01, 0x13, 0x09, 0x13,
  0xf7, 0x05, 0x0d, 0x00, 0x0f, 0x01, 0x05, 0x13, 0x0a, 0xfa, 0xff, 0x01,
  0xf5, 0xf0, 0xf2, 0x09, 0xf2, 0x04, 0xf2, 0x01, 0x0a, 0xfd, 0xf9, 0xff,
  0xfc, 0x05, 0xfc, 0x04, 0x03, 0x00, 0x07, 0x08, 0xf7, 0xf3, 0x01, 0xf8,
  0xf6, 0xf4, 0x07, 0xf4, 0x04, 0x01, 0xfa, 0x0a, 0xf6, 0xf3, 0xfb, 0x05,
  0xfb, 0xf3, 0x02, 0xfe, 0xfb, 0x01, 0xfc, 0xf7, 0xe2, 0x01, 0x00, 0x03,
  0xfc, 0xf8, 0xfc, 0xf1, 0x00, 0x01, 0xf9, 0xf8, 0xde, 0xea, 0xef, 0x08,
  0xf9, 0xf6, 0xfa, 0x03, 0x06, 0xfa, 0xfa, 0xf9, 0xc0, 0xff, 0xf1, 0x18,
  0xe8, 0xf1, 0xe4, 0xe6, 0xed, 0xef, 0xf2, 0xf3, 0xc9, 0xe4, 0xe4, 0x09,
  0xee, 0xec, 0xf4, 0xfc, 0xfb, 0x01, 0xfa, 0xea, 0xbb, 0xef, 0xdb, 0x3b,
  0x02, 0xfc, 0xf7, 0x0a, 0xf0, 0x01, 0xf8, 0xf4, 0xc3, 0x04, 0xe8, 0x3b,
  0xfa, 0xf2, 0xf5, 0x04, 0xf3, 0x09, 0xff, 0x07, 0xee, 0x0c, 0xf8, 0x3b,
  0x06, 0xf4, 0x00, 0x03, 0xef, 0x05, 0x03, 0x01, 0xf1, 0x04, 0xe9, 0x1f,
  0x05, 0x06, 0xfd, 0x0b, 0xf9, 0x07, 0xf6, 0x04, 0xfa, 0x01, 0xff, 0x1e,
  0x02, 0x04, 0xf9, 0xfd, 0x0b, 0x01, 0x01, 0x02, 0xfc, 0xff, 0xf2, 0x03,
  0xf0, 0xec, 0xf2, 0xe3, 0xe3, 0xf7, 0xf7, 0xe8, 0xed, 0xf3, 0xe6, 0x03,
  0x00, 0xf5, 0xee, 0xf6, 0xff, 0xfd, 0xf6, 0xfd, 0xe1, 0xf0, 0xfb, 0xfc,
  0x02, 0x00, 0x02, 0xf6, 0xf3, 0xfd, 0xf4, 0xf9, 0xdb, 0xfc, 0x00, 0xf5,
  0x00, 0x0b, 0xfd, 0x0a, 0xfb, 0x0a, 0xf7, 0xf9, 0xd9, 0xee, 0xf9, 0x01,
  0x12, 0x00, 0x03, 0x00, 0xff, 0xff, 0xfc, 0xf8, 0xdd, 0x03, 0x00, 0x19,
  0x0f, 0x05, 0xf9, 0xff, 0x02, 0xfc, 0x05, 0x05, 0xd8, 0x04, 0xf9, 0xfc,
  0xeb, 0xef, 0xf2, 0xe6, 0xe8, 0xf3, 0xe9, 0xf5, 0xe2, 0xf1, 0xd6, 0x0e,
  0x01, 0xfe, 0xfb, 0xef, 0xfb, 0x02, 0xf1, 0xf3, 0xb8, 0xfe, 0xed, 0x2c,
  0xfc, 0x04, 0xff, 0x0c, 0xff, 0x0d, 0xfd, 0x07, 0xca, 0x05, 0xf8, 0x15,
  0xfe, 0x04, 0xfc, 0x02, 0xf4, 0xf6, 0x07, 0x00, 0xe3, 0xf1, 0xee, 0x32,
  0xf0, 0x04, 0xfa, 0xfd, 0xf5, 0x00, 0x02, 0xf9, 0xf3, 0x00, 0xe7, 0x24,
  0xf1, 0xe8, 0xee, 0xf9, 0xfb, 0xfc, 0xf5, 0xf9, 0xf4, 0xeb, 0xe7, 0x12,
  0xe3, 0xeb, 0xfb, 0x00, 0xeb, 0xef, 0x01, 0xf2, 0x05, 0xe4, 0xec, 0x00,
  0xed, 0xe9, 0xeb, 0xee, 0xe1, 0xe3, 0xe6, 0xf4, 0xfa, 0xf6, 0xea, 0xf6,
  0xf7, 0x02, 0x05, 0xf7, 0xf4, 0xf1, 0xfb, 0x02, 0xe4, 0xf0, 0xec, 0xf9,
  0x01, 0xfa, 0xfc, 0xfb, 0xf9, 0xf9, 0x09, 0x00, 0xda, 0xfe, 0xfe, 0x04,
  0x05, 0x0f, 0x02, 0x0d, 0x14, 0xff, 0x05, 0x11, 0xe5, 0x0f, 0x0f, 0x03,
  0x12, 0x1b, 0x09, 0x0f, 0x0f, 0x0e, 0x13, 0x16, 0xe1, 0x0d, 0x08, 0x1f,
  0x11, 0x0f, 0x14, 0x0d, 0x09, 0x0c, 0x10, 0x0e, 0xf7, 0x0d, 0x11, 0xee,
  0x00, 0xe9, 0xf3, 0xf4, 0xf7, 0xf6, 0xf4, 0xf4, 0xe8, 0xf1, 0xec, 0x25,
  0x0d, 0x0c, 0x05, 0xfd, 0xf5, 0x01, 0xfb, 0xf6, 0xbd, 0x10, 0xfc, 0x01,
  0xfb, 0x09, 0x0d, 0x06, 0x05, 0x08, 0x0c, 0xfb, 0xe5, 0xf9, 0x08, 0xf9,
  0x0c, 0xf4, 0xff, 0x08, 0xfd, 0x03, 0xf7, 0xfd, 0xed, 0x04, 0xfd, 0x25,
  0x01, 0xf6, 0xf5, 0x0b, 0xf9, 0xf9, 0xfb, 0x01, 0xf1, 0x01, 0xf6, 0x12,
  0x02, 0xf9, 0xf0, 0xf3, 0xf5, 0xf7, 0xf3, 0xeb, 0xf1, 0xfa, 0xee, 0x01,
  0xe6, 0xeb, 0xe3, 0xe7, 0xf3, 0xe1, 0xe2, 0xdf, 0xf2, 0xe1, 0xe2, 0xfc,
  0xf6, 0xe0, 0xe0, 0xf2, 0xec, 0xe9, 0xf5, 0xeb, 0xf7, 0xfb, 0xf0, 0xf8,
  0x04, 0x04, 0x03, 0xfc, 0xff, 0x01, 0x09, 0xfd, 0xe9, 0xf4, 0x01, 0xfc,
  0x02, 0x0b, 0x05, 0x0f, 0x13, 0x09, 0x0a, 0x0e, 0xf8, 0x12, 0x01, 0x0a,
  0x03, 0x09, 0x06, 0x01, 0x06, 0x05, 0x14, 0x0b, 0x09, 0x06, 0x0f, 0x04,
  0x07, 0x12, 0x12, 0x0a, 0x05, 0x14, 0x10, 0x0b, 0x09, 0x10, 0x09, 0x0b,
  0x0e, 0x0e, 0x13, 0x02, 0x09, 0x06, 0x04, 0x11, 0x0a, 0x0a, 0x0e, 0xe9,
  0xf4, 0xfb, 0x03, 0xf5, 0xf7, 0x00, 0xf8, 0x01, 0xf9, 0xf8, 0xfb, 0xef,
  0x0e, 0x0c, 0xfe, 0x00, 0xf7, 0x0f, 0x00, 0xfb, 0xe0, 0x03, 0xfb, 0xe4,
  0x00, 0x12, 0x13, 0x0d, 0x06, 0x13, 0x13, 0x07, 0x03, 0x08, 0xff, 0xfa,
  0x03, 0x0d, 0x03, 0x0f, 0x02, 0xf8, 0x05, 0x00, 0x0e, 0x09, 0x0a, 0x03,
  0x05, 0x0e, 0x05, 0x0c, 0xf7, 0x04, 0x0c, 0x0f, 0x09, 0x02, 0xff, 0x0c,
  0xfc, 0xf5, 0xfc, 0xfc, 0xfc, 0xeb, 0xf7, 0xf8, 0x01, 0xeb, 0x01, 0x02,
  0xe3, 0xe0, 0xed, 0xdf, 0xee, 0xe7, 0xe9, 0xe6, 0xfb, 0xef, 0xf2, 0x05,
  0xf0, 0xe2, 0xe9, 0xe9, 0xf8, 0xe6, 0xf2, 0xe8, 0xf5, 0xe0, 0xf5, 0xf2,
  0xf5, 0xf7, 0xfc, 0xf6, 0xe4, 0xf8, 0x00, 0xfe, 0x0a, 0xff, 0xf5, 0xf5,
  0x02, 0x0c, 0xfe, 0x05, 0xfa, 0x05, 0x17, 0x15, 0x07, 0x00, 0xfb, 0xf7,
  0x07, 0x14, 0x10, 0x01, 0x10, 0x13, 0x02, 0x0c, 0x03, 0x0f, 0xfb, 0x07,
  0xf9, 0x0a, 0xf8, 0x0c, 0xfd, 0xfc, 0x01, 0x0e, 0x05, 0xfc, 0xf9, 0xe9,
  0xfb, 0xf9, 0x03, 0x08, 0x06, 0xff, 0xfa, 0xf5, 0x00, 0xf4, 0x07, 0xfa,
  0x11, 0x0c, 0x08, 0x03, 0x0b, 0x0b, 0x04, 0xfd, 0x03, 0x08, 0x0a, 0x01,
  0x13, 0x05, 0x07, 0x18, 0x0d, 0x13, 0x12, 0x11, 0x03, 0x1d, 0x16, 0xdd,
  0xfe, 0x11, 0x13, 0x17, 0x08, 0x14, 0x09, 0x0b, 0x14, 0xfe, 0x12, 0xf6,
  0xfe, 0x0e, 0x0a, 0x00, 0x03, 0xfc, 0x0f, 0x08, 0x16, 0x05, 0xfa, 0x17,
  0x0a, 0x07, 0x00, 0xfe, 0x0d, 0x05, 0xf9, 0xff, 0x0e, 0xfc, 0x07, 0x07,
  0xfb, 0xf8, 0xf9, 0xfe, 0xfd, 0xf2, 0xfd, 0xf6, 0xf1, 0xed, 0xfd, 0xf9,
  0xf7, 0xe8, 0xee, 0xe5, 0xdc, 0xe9, 0xef, 0xe5, 0xf8, 0xef, 0xec, 0xf5,
  0xfa, 0x00, 0xff, 0xed, 0xf7, 0xfe, 0xfa, 0xf0, 0xee, 0xee, 0x04, 0xf6,
  0xff, 0xf1, 0xe6, 0xed, 0xeb, 0xee, 0xec, 0xfa, 0xf6, 0xfe, 0xf6, 0xf8,
  0x00, 0xfd, 0xf2, 0x08, 0xef, 0xf7, 0xfd, 0x03, 0x03, 0x0a, 0xef, 0x02,
  0xf4, 0x06, 0xfe, 0x0a, 0xf3, 0x07, 0xf7, 0x0a, 0xfe, 0xfc, 0xf4, 0xec,
  0xf2, 0xf5, 0xed, 0x01, 0x01, 0xff, 0xf5, 0x00, 0x07, 0xf6, 0xf6, 0x01,
  0xf8, 0xf3, 0xf2, 0x04, 0x01, 0xf4, 0x08, 0xf4, 0xfb, 0xff, 0xfc, 0xfe,
  0x10, 0x08, 0x12, 0x0c, 0xf7, 0x03, 0x07, 0x01, 0x13, 0x07, 0x09, 0xf0,
  0x04, 0x0f, 0x0c, 0x08, 0x05, 0x07, 0x09, 0x09, 0x15, 0x0a, 0x0e, 0xd7,
  0xf6, 0x03, 0x03, 0x05, 0x0c, 0x01, 0x02, 0xff, 0x04, 0xf8, 0xf1, 0xf4,
  0xf4, 0xfc, 0xf9, 0xfb, 0x04, 0x03, 0x0a, 0xfc, 0x0b, 0xf1, 0x03, 0x0e,
  0xf9, 0xf8, 0x00, 0x06, 0x01, 0xfa, 0xf8, 0xf8, 0x03, 0xfc, 0x0b, 0xf5,
  0xef, 0xfa, 0xf8, 0xef, 0xf1, 0xf7, 0x02, 0xea, 0x01, 0xf7, 0xff, 0x10,
  0xf5, 0xf7, 0xf2, 0xe1, 0xeb, 0xe3, 0xf8, 0xf5, 0xf0, 0xe7, 0xf4, 0xf8,
  0x06, 0xfe, 0x05, 0x05, 0x03, 0xfc, 0xf2, 0xf4, 0x00, 0x00, 0xfb, 0x04,
  0xf6, 0xee, 0xef, 0xf5, 0x02, 0xee, 0xfe, 0xfe, 0xf6, 0xf6, 0x01, 0xfe,
  0xf7, 0xee, 0xf9, 0xfa, 0xf5, 0xf6, 0xef, 0xfa, 0xf3, 0xfe, 0x02, 0x08,
  0xfb, 0x00, 0xf3, 0xf2, 0xe9, 0x02, 0xff, 0xf1, 0xf6, 0xef, 0xf5, 0x0d,
  0xf5, 0xea, 0xec, 0xfb, 0xee, 0xfb, 0xeb, 0xfe, 0xfb, 0xe6, 0xe7, 0x24,
  0xee, 0xf1, 0xe8, 0xfb, 0xe6, 0xfd, 0xf1, 0xee, 0xfd, 0xeb, 0xf0, 0xfb,
  0x04, 0x09, 0x03, 0xf4, 0xf1, 0x0b, 0x0a, 0x06, 0x03, 0xfc, 0xe5, 0x05,
  0xf7, 0x0a, 0x07, 0xf9, 0x05, 0xff, 0x06, 0x04, 0x05, 0xf3, 0xfd, 0xfb,
  0xf4, 0xfe, 0x00, 0xf6, 0xfd, 0xf6, 0xfe, 0x03, 0xfb, 0xf0, 0xf1, 0xe0,
  0xf5, 0xed, 0xfb, 0xf9, 0xf8, 0xf3, 0xfc, 0xf1, 0xf1, 0xef, 0xf0, 0xe9,
  0xf9, 0xff, 0xfd, 0xf3, 0xf1, 0xf4, 0xed, 0xed, 0x05, 0xf5, 0xfb, 0xef,
  0xf4, 0xe5, 0xe1, 0xf8, 0xe6, 0xe3, 0xeb, 0xfe, 0xed, 0xf2, 0xef, 0xfe,
  0xf4, 0xf2, 0xe7, 0xf2, 0xfc, 0xfa, 0xee, 0xf4, 0xfa, 0xe3, 0xf5, 0x0c,
  0xfe, 0x01, 0xf3, 0xfc, 0xfb, 0xfa, 0x08, 0x02, 0x00, 0xfe, 0x02, 0xf7,
  0xf1, 0xfa, 0xff, 0xfb, 0xee, 0xfe, 0xff, 0xec, 0xfc, 0xea, 0xf1, 0x00,
  0xf0, 0xf4, 0xec, 0x03, 0xf6, 0xf6, 0xfc, 0xf3, 0xf0, 0xfc, 0xee, 0xff,
  0xf5, 0x02, 0x00, 0xfc, 0xe8, 0xef, 0xf1, 0xf7, 0xeb, 0xed, 0xef, 0x10,
  0xff, 0xef, 0xf6, 0xf3, 0xf5, 0xee, 0xf7, 0xfc, 0xdc, 0xfc, 0xfe, 0x1e,
  0xfa, 0xef, 0xf5, 0xfa, 0xf4, 0xf3, 0xf5, 0xf2, 0xd5, 0xff, 0xea, 0x09,
  0xf7, 0xfe, 0xf7, 0xfa, 0xf0, 0xfa, 0xf8, 0xfd, 0xeb, 0xfb, 0xe3, 0x0e,
  0xf5, 0xf6, 0x03, 0xf3, 0xf6, 0xfa, 0xfd, 0x01, 0xf0, 0xf0, 0xf9, 0xe5,
  0x02, 0xf8, 0x01, 0x0a, 0x01, 0x03, 0xf6, 0xf7, 0xed, 0xeb, 0xf4, 0xd5,
  0xf6, 0xfa, 0x06, 0x02, 0xfd, 0x02, 0x07, 0x01, 0xf9, 0xfc, 0x08, 0xdd,
  0xfb, 0xf9, 0xfa, 0xf4, 0x03, 0x08, 0xff, 0x05, 0xfa, 0x00, 0xfd, 0xfb,
  0xf9, 0xff, 0xf7, 0xfd, 0xf9, 0xfc, 0xf0, 0xf7, 0xfd, 0xf3, 0x08, 0x07,
  0xf2, 0xe9, 0xec, 0xe8, 0xfa, 0xf3, 0xf5, 0xe5, 0xf2, 0xf2, 0xfc, 0xfb,
  0xfd, 0xf9, 0x0a, 0xeb, 0xfc, 0x02, 0xf4, 0xef, 0xf2, 0xf6, 0x02, 0xfa,
  0xf4, 0xf1, 0xfc, 0xfc, 0xfe, 0x01, 0xf9, 0xf4, 0xed, 0xf4, 0xf9, 0x05,
  0xff, 0xfe, 0xfa, 0xf1, 0xf9, 0xff, 0xf6, 0xf7, 0xf5, 0xec, 0xfc, 0x07,
  0x04, 0xf1, 0xf3, 0xfa, 0xf4, 0xfa, 0x03, 0xef, 0xf2, 0x08, 0xf4, 0xff,
  0x08, 0xf5, 0x08, 0x04, 0xfb, 0xf9, 0x01, 0x03, 0xf7, 0x01, 0x09, 0x05,
  0x06, 0x01, 0x04, 0x03, 0x04, 0x03, 0x08, 0x0b, 0xf8, 0xff, 0x00, 0xfe,
  0xfe, 0xf6, 0x01, 0xfc, 0x00, 0xfc, 0xf8, 0xf7, 0xfe, 0xf9, 0xfd, 0x10,
  0x03, 0x0d, 0xfc, 0xfa, 0x06, 0x01, 0x0a, 0xf9, 0xf6, 0x09, 0xfa, 0xea,
  0x08, 0x0f, 0x04, 0x0a, 0x04, 0x0c, 0x00, 0x0b, 0x01, 0xfb, 0x02, 0xee,
  0x09, 0x0c, 0x06, 0x09, 0x05, 0xfe, 0xfc, 0x0c, 0x0f, 0x00, 0x02, 0xfc,
  0x01, 0x04, 0x09, 0x0c, 0xfd, 0x0a, 0x00, 0x0a, 0xfe, 0x01, 0x0d, 0xfe,
  0x07, 0x05, 0x07, 0xf4, 0x09, 0xf4, 0x07, 0xff, 0xff, 0x0c, 0xf7, 0x04,
  0x0a, 0xf7, 0xf8, 0xf0, 0xf6, 0xfb, 0xee, 0xf5, 0xf1, 0xf5, 0xf6, 0xf9,
  0xfb, 0xfe, 0x01, 0xf6, 0x01, 0xfd, 0xfa, 0x05, 0xfa, 0x07, 0xf9, 0xfd,
  0xfd, 0x04, 0xf6, 0x09, 0x05, 0x03, 0x00, 0xff, 0x04, 0xff, 0xf9, 0x0c,
  0xeb, 0xf6, 0xf8, 0xef, 0xfb, 0xf6, 0xfa, 0xf4, 0xed, 0xeb, 0xf2, 0x07,
  0x02, 0xfb, 0xe3, 0xf7, 0xdc, 0xf9, 0x04, 0x09, 0xfa, 0xfa, 0xd8, 0xfa,
  0xed, 0xed, 0xf8, 0xf3, 0x02, 0xff, 0xfe, 0xf9, 0x0d, 0x03, 0xce, 0xf4,
  0xe3, 0xec, 0xf4, 0xe7, 0xfc, 0xe6, 0xea, 0xec, 0xfa, 0xf7, 0xbd, 0x14,
  0xf4, 0xed, 0xe3, 0xec, 0xf3, 0xe9, 0xf1, 0xff, 0xff, 0xfe, 0xc7, 0x01,
  0xdf, 0xfb, 0xf2, 0xe8, 0xf2, 0xed, 0xfd, 0xf8, 0xfd, 0xe7, 0xc2, 0x0a,
  0xdb, 0xe5, 0xe8, 0xf5, 0xfa, 0xf5, 0xf4, 0xfb, 0xf6, 0xf0, 0xc3, 0x17,
  0xea, 0xfe, 0xfa, 0xeb, 0xf8, 0xf2, 0xea, 0xf9, 0xfb, 0xef, 0xdb, 0x16,
  0xf3, 0xfc, 0xed, 0xff, 0xf2, 0xf1, 0xfd, 0xf7, 0x01, 0xea, 0xe8, 0x05,
  0xfd, 0xf1, 0xf4, 0x04, 0x03, 0xfe, 0xff, 0xf1, 0xf4, 0xfd, 0xf9, 0x04,
  0x06, 0xf3, 0xf1, 0xf3, 0xf2, 0xff, 0xf3, 0xf4, 0x03, 0x02, 0xfd, 0xfe,
  0x0d, 0x0d, 0x01, 0x12, 0x0e, 0xff, 0x12, 0x0b, 0x10, 0x08, 0x0c, 0x0c,
  0x1c, 0x15, 0x06, 0x07, 0x12, 0x18, 0x13, 0x07, 0x1c, 0x13, 0x19, 0x0c,
  0x0b, 0x03, 0x01, 0x0c, 0x1c, 0x12, 0x0b, 0x11, 0x0b, 0x04, 0x0d, 0x12,
  0x0b, 0xea, 0xf1, 0xfd, 0xfc, 0xf0, 0xe7, 0xff, 0x1e, 0x0d, 0x0a, 0x14,
  0x06, 0xfb, 0xf2, 0xf0, 0xfe, 0x01, 0xf1, 0xe2, 0x0a, 0xd5, 0xee, 0x0b,
  0xf1, 0xf8, 0xf7, 0x00, 0xf4, 0xf0, 0xf4, 0xed, 0x12, 0xf8, 0xfd, 0x11,
  0x01, 0xf4, 0xfc, 0xec, 0xf7, 0x01, 0xf5, 0xf1, 0x15, 0xe3, 0xfd, 0x02,
  0xff, 0xf7, 0xf4, 0xf4, 0xf8, 0xf3, 0xf5, 0xfd, 0x06, 0xf8, 0x06, 0x07,
  0xfe, 0xfb, 0xfe, 0x0f, 0x0d, 0x07, 0x06, 0x02, 0x06, 0x02, 0x0b, 0x0c,
  0x0a, 0x0a, 0x02, 0xfd, 0x0e, 0x04, 0x01, 0x0f, 0x18, 0x0c, 0xff, 0x1b,
  0x02, 0x05, 0x02, 0x09, 0x01, 0xf9, 0x05, 0x08, 0x17, 0x0a, 0x01, 0x19,
  0x03, 0xe5, 0xe8, 0x02, 0xf6, 0x00, 0xee, 0x0b, 0x0d, 0xfb, 0xf6, 0x12,
  0x12, 0xe8, 0xf6, 0xf4, 0x17, 0xf6, 0xf9, 0xed, 0x18, 0xe8, 0x00, 0x0b,
  0x1b, 0xf5, 0x04, 0x09, 0x15, 0xf6, 0xfe, 0xff, 0x12, 0x09, 0x0a, 0x12,
  0x05, 0xee, 0xf0, 0xf2, 0xf5, 0xf3, 0xfb, 0xf0, 0x0c, 0x0c, 0xfd, 0x08,
  0x0b, 0xfc, 0xfa, 0xf5, 0x01, 0x01, 0xfd, 0xf8, 0x20, 0xf6, 0xf5, 0x10,
  0xf9, 0xfb, 0xfc, 0xfd, 0x0c, 0x0d, 0xff, 0xf2, 0x0d, 0xfa, 0xfe, 0x0c,
  0x02, 0xf7, 0x04, 0xf9, 0xfc, 0x09, 0x01, 0xfe, 0xf3, 0xf4, 0x02, 0x0e,
  0xff, 0xf3, 0xf8, 0xf6, 0xf8, 0xf7, 0xfd, 0xf1, 0xe2, 0xfe, 0xf5, 0x03,
  0xfa, 0xf2, 0xf7, 0xfd, 0xfb, 0xf5, 0xf6, 0x01, 0xf5, 0xf7, 0xf5, 0x03,
  0x0d, 0x00, 0xf9, 0x08, 0x00, 0xfc, 0x08, 0x08, 0xfe, 0xfe, 0xfa, 0xf8,
  0x00, 0x02, 0xfb, 0x02, 0x05, 0x0c, 0x0a, 0xfb, 0x0c, 0x06, 0x0a, 0x09,
  0x0d, 0xfd, 0x06, 0xf8, 0xf6, 0xfd, 0x05, 0x0c, 0x18, 0x0b, 0x03, 0x19,
  0x04, 0xfc, 0xf7, 0xfd, 0xfe, 0x05, 0xfa, 0xf5, 0x18, 0x07, 0x09, 0x0c,
  0x07, 0x09, 0x09, 0xfa, 0x0d, 0x07, 0xfa, 0x0b, 0x0d, 0x05, 0x0a, 0x21,
  0x06, 0x12, 0x09, 0x03, 0x09, 0x08, 0x12, 0x09, 0x13, 0x15, 0x11, 0x0f,
  0x15, 0xeb, 0xe9, 0xe9, 0xfc, 0xe2, 0xea, 0xf8, 0x16, 0x03, 0xff, 0x1c,
  0xeb, 0xf0, 0xe1, 0xe0, 0xe7, 0xe3, 0xef, 0xf0, 0xfd, 0xf2, 0xe7, 0x11,
  0xf7, 0xf6, 0x08, 0xf2, 0xf1, 0x04, 0xff, 0xf2, 0xe8, 0xee, 0xfc, 0x0d,
  0x07, 0x01, 0x03, 0x06, 0xf8, 0xfd, 0x0e, 0x01, 0xda, 0xf7, 0x02, 0x09,
  0x05, 0xff, 0xff, 0xff, 0x08, 0x01, 0x07, 0xf8, 0xe0, 0xfe, 0xfa, 0xf8,
  0xfb, 0xfd, 0xf6, 0x0b, 0x04, 0xfa, 0x06, 0x07, 0xe0, 0xf9, 0x06, 0xfe,
  0xfb, 0x01, 0x03, 0x07, 0x00, 0xff, 0xf1, 0xfd, 0xfa, 0xff, 0xf9, 0xfa,
  0xfa, 0x05, 0xfa, 0x07, 0xfa, 0xf8, 0xfa, 0x01, 0x07, 0xfa, 0x0a, 0xf5,
  0x0a, 0x01, 0xf9, 0xfe, 0x0c, 0x0d, 0x0c, 0xfc, 0x1b, 0x03, 0x04, 0x13,
  0x12, 0x0a, 0x06, 0xfa, 0xf9, 0xfd, 0x0a, 0x02, 0x1e, 0x10, 0x07, 0x26,
  0x0d, 0x00, 0x01, 0xf7, 0xfe, 0xfc, 0xf9, 0xf9, 0x28, 0x08, 0xfb, 0x3e,
  0x15, 0xfa, 0xf5, 0x08, 0xfb, 0x08, 0xf5, 0x07, 0x15, 0x12, 0xf7, 0x22,
  0x04, 0x17, 0x13, 0xff, 0x10, 0x0f, 0x11, 0x06, 0x1c, 0x0c, 0x03, 0x1f,
  0x07, 0xdb, 0xe7, 0xdf, 0x04, 0xe2, 0xe2, 0xd4, 0x14, 0xde, 0x00, 0x0f,
  0xf0, 0xe7, 0xe4, 0xf4, 0xf2, 0xf0, 0xef, 0xeb, 0xe9, 0xed, 0xea, 0x0d,
  0x00, 0xf5, 0x00, 0xfc, 0xea, 0xf7, 0x04, 0xf9, 0xde, 0xee, 0xef, 0x08,
  0xfc, 0xfe, 0x10, 0x05, 0x0c, 0x02, 0x04, 0x06, 0xda, 0xfb, 0x01, 0xed,
  0x07, 0x0f, 0xfd, 0xfa, 0x10, 0x06, 0x02, 0xfb, 0xe5, 0xf4, 0xfd, 0xf0,
  0x01, 0x04, 0x0a, 0x00, 0xfc, 0x02, 0x03, 0x09, 0xf1, 0xf3, 0x04, 0xec,
  0xf3, 0xf6, 0x03, 0xfb, 0xfe, 0xf4, 0x08, 0xfd, 0x0b, 0xf6, 0xf4, 0xee,
  0xf0, 0xf5, 0xf5, 0xfe, 0xfe, 0xfc, 0x03, 0xf3, 0x14, 0xed, 0xfc, 0xe6,
  0xfd, 0x05, 0xf9, 0x00, 0xfc, 0xf6, 0x02, 0x06, 0x1f, 0xf7, 0x0d, 0xe6,
  0xf9, 0x0d, 0xfe, 0xfd, 0x0c, 0xfa, 0x08, 0x02, 0x26, 0x13, 0x15, 0x25,
  0x12, 0x0b, 0x0b, 0x09, 0x0a, 0xf9, 0x00, 0x01, 0x2f, 0x0c, 0x0d, 0x2b,
  0x27, 0x04, 0x03, 0x01, 0x00, 0x11, 0x0c, 0x11, 0x1d, 0x17, 0x1c, 0x2d,
  0x32, 0x13, 0x16, 0x1d, 0x21, 0x1a, 0x1b, 0x0f, 0x19, 0x2b, 0x21, 0x16,
  0xfb, 0xd8, 0xd6, 0xd5, 0xfb, 0xd8, 0xe3, 0xdb, 0x0a, 0xe0, 0xfe, 0x0b,
  0xfc, 0xf2, 0xf0, 0xe4, 0xf6, 0xea, 0xfd, 0xf6, 0xf6, 0xe7, 0xf2, 0x07,
  0xf7, 0x09, 0xf6, 0x01, 0x01, 0xfa, 0xfd, 0xf3, 0xdd, 0xfb, 0xf1, 0xfd,
  0xfd, 0x12, 0x11, 0x00, 0x02, 0x04, 0x08, 0x07, 0xdc, 0xf7, 0xfc, 0xe6,
  0xff, 0x06, 0x10, 0xff, 0x0a, 0x0b, 0x01, 0x00, 0xe2, 0xf0, 0x05, 0xe1,
  0xff, 0x0b, 0x07, 0x0a, 0x11, 0x0e, 0x03, 0xfb, 0xfc, 0x00, 0x05, 0xeb,
  0xf8, 0xff, 0x05, 0xf2, 0x07, 0xfb, 0xfa, 0xf6, 0x0a, 0xed, 0x0b, 0xde,
  0xdd, 0xe8, 0xee, 0xe8, 0xf4, 0xe2, 0xed, 0xed, 0x11, 0xdf, 0x03, 0xa7,
  0xf3, 0xe7, 0xf3, 0xf8, 0xf5, 0xe5, 0xef, 0xfa, 0x1c, 0xe3, 0xfc, 0x98,
  0xed, 0xf4, 0xf7, 0xfa, 0x03, 0xfa, 0xf0, 0xfe, 0x1c, 0xee, 0xfe, 0xbf,
  0xeb, 0xf6, 0xea, 0xed, 0xf2, 0xea, 0x06, 0xfc, 0x2e, 0x04, 0x03, 0xf0,
  0x11, 0x10, 0x0b, 0x07, 0x03, 0x12, 0x1b, 0x14, 0x24, 0x22, 0x20, 0x1b,
  0x37, 0x2a, 0x3d, 0x24, 0x2f, 0x2d, 0x32, 0x19, 0x26, 0x2e, 0x35, 0x27,
  0xfe, 0xee, 0x00, 0xf6, 0x02, 0xf2, 0xfa, 0xec, 0x01, 0xf2, 0xf6, 0x12,
  0x02, 0xfd, 0x00, 0xf3, 0xf1, 0xfd, 0xf7, 0xf7, 0xf7, 0xf3, 0xf3, 0x12,
  0xfc, 0x05, 0xfd, 0xf7, 0x08, 0x03, 0xfc, 0xfb, 0xeb, 0xfe, 0xfc, 0x02,
  0xf4, 0xf7, 0xfc, 0xf5, 0xfa, 0x09, 0xf8, 0x06, 0xf8, 0xfe, 0xf9, 0xdd,
  0x03, 0x02, 0xfc, 0x07, 0x0d, 0xfd, 0x04, 0xf8, 0xfa, 0xf7, 0x00, 0xfc,
  0x00, 0xfe, 0xfd, 0x0e, 0x10, 0x07, 0x0f, 0x0a, 0x12, 0x0b, 0x14, 0x00,
  0xed, 0xfd, 0x03, 0x02, 0x14, 0x01, 0x04, 0x00, 0x2a, 0xf9, 0x13, 0xd7,
  0xe8, 0xf1, 0xfe, 0xf4, 0x09, 0xfd, 0xf0, 0xea, 0x19, 0xea, 0x0b, 0xaf,
  0xe4, 0x02, 0xff, 0xf7, 0x03, 0xee, 0xfc, 0xea, 0x0a, 0xdb, 0x03, 0x81,
  0xe2, 0x00, 0x01, 0xef, 0x08, 0x02, 0xfc, 0xf8, 0x00, 0xde, 0x14, 0x94,
  0xe7, 0xe1, 0xe6, 0xe7, 0xf8, 0xf1, 0xec, 0xf5, 0x08, 0xd9, 0xfb, 0xd0,
  0xe7, 0xfe, 0xe5, 0xf2, 0xec, 0xf1, 0xf5, 0x00, 0x10, 0x02, 0xea, 0xfe,
  0x1c, 0x1a, 0x1c, 0x0b, 0x1e, 0x24, 0x14, 0x10, 0x29, 0x1c, 0x07, 0x2a,
  0x11, 0xef, 0xf1, 0xf2, 0xfc, 0xf4, 0xee, 0x00, 0x0d, 0xf3, 0x00, 0x1b,
  0xf4, 0xfc, 0xfb, 0xf2, 0x00, 0xf6, 0x01, 0xfa, 0x06, 0x04, 0x02, 0x0a,
  0xf5, 0xfd, 0x02, 0xfb, 0x03, 0x07, 0xf3, 0xf6, 0x08, 0xf6, 0xee, 0xeb,
  0x01, 0x08, 0x02, 0xfd, 0xf9, 0xf9, 0xf7, 0xf6, 0x03, 0xf5, 0xf1, 0xe2,
  0x05, 0x04, 0x0a, 0x0b, 0x0b, 0x04, 0x04, 0x05, 0x0b, 0x01, 0xfe, 0xfe,
  0x08, 0x0b, 0x0c, 0x0f, 0x08, 0x0f, 0x01, 0xfd, 0x19, 0xf7, 0x05, 0xf3,
  0xfa, 0x08, 0x00, 0x05, 0x0f, 0xff, 0xf4, 0x07, 0x13, 0xe9, 0x03, 0xe7,
  0xf5, 0xee, 0xf1, 0xf8, 0xff, 0xf6, 0xfb, 0xfa, 0xfe, 0xe8, 0xfd, 0xd5,
  0xfb, 0xf0, 0xfa, 0xfa, 0xf9, 0xf5, 0xfa, 0xfe, 0xfe, 0xea, 0x06, 0xbd,
  0x00, 0xf4, 0x0a, 0xf6, 0x0d, 0xf4, 0x00, 0xff, 0xf3, 0xee, 0x01, 0xab,
  0xe8, 0x03, 0xf7, 0xf3, 0x01, 0xfa, 0xf8, 0x01, 0xe5, 0xe2, 0x01, 0xd2,
  0xec, 0xf3, 0xea, 0xea, 0xf0, 0xe8, 0xe1, 0xe8, 0xd6, 0xed, 0xff, 0xf1,
  0x06, 0xf2, 0xf1, 0xf5, 0xf0, 0xf9, 0xf3, 0xfc, 0xf0, 0xfc, 0x03, 0x0e,
  0x01, 0xe3, 0xe7, 0xe9, 0xfc, 0xdf, 0xf2, 0xe7, 0x11, 0xea, 0xeb, 0x17,
  0x08, 0x08, 0x00, 0xf3, 0x03, 0xfd, 0x01, 0x03, 0x1c, 0xef, 0xfa, 0x15,
  0xf8, 0x02, 0xf8, 0xef, 0xfb, 0xf9, 0xf4, 0xee, 0x24, 0xfe, 0x01, 0xfa,
  0xe5, 0xed, 0x00, 0xf0, 0xf1, 0xfb, 0xf3, 0xf0, 0x23, 0xf6, 0xff, 0xd0,
  0xf0, 0x08, 0xfc, 0xf9, 0xff, 0xfd, 0xfb, 0xf9, 0x20, 0xf0, 0xfc, 0xcf,
  0xf4, 0xfa, 0xfc, 0xff, 0x01, 0xfc, 0xf9, 0xfe, 0x11, 0xeb, 0x05, 0xdf,
  0xf9, 0xfe, 0x03, 0xf2, 0x05, 0xfd, 0xfa, 0xf9, 0x11, 0xed, 0x0c, 0x02,
  0xfd, 0xf0, 0xf4, 0xfe, 0x02, 0xf6, 0xfa, 0xfd, 0xfd, 0xe7, 0xfa, 0x00,
  0x05, 0x04, 0xf9, 0xfe, 0x07, 0xf5, 0xf3, 0xfa, 0xdf, 0xfb, 0x0a, 0xf4,
  0xf6, 0x02, 0x01, 0xfd, 0xf9, 0xfb, 0xf4, 0xfc, 0xf6, 0x03, 0x07, 0xd4,
  0x05, 0xfa, 0x02, 0x01, 0x07, 0xf6, 0xfd, 0x03, 0xed, 0xec, 0x08, 0xe5,
  0xff, 0x06, 0x02, 0x03, 0x0b, 0x07, 0x04, 0xfe, 0xfe, 0x02, 0x0b, 0xec,
  0x05, 0xf8, 0xf1, 0xf5, 0xf5, 0xf4, 0xf2, 0x07, 0x05, 0xf1, 0x00, 0x0b,
  0xfa, 0xe7, 0x00, 0xed, 0xfc, 0xfd, 0xf7, 0xe6, 0x0f, 0xe4, 0x00, 0x07,
  0x0c, 0x04, 0x02, 0x05, 0x09, 0x08, 0x02, 0x10, 0x1d, 0x13, 0x08, 0x22,
  0x0a, 0x0a, 0x05, 0xf7, 0x1b, 0x0e, 0x02, 0x00, 0x19, 0x00, 0x0e, 0x10,
  0xf2, 0xf7, 0xfc, 0xef, 0x0b, 0xed, 0xf8, 0x04, 0x0b, 0xe7, 0x17, 0xf3,
  0xf1, 0xf0, 0x00, 0xe9, 0x00, 0xfc, 0xee, 0xf9, 0x0e, 0xee, 0x0b, 0xcd,
  0xfd, 0xf7, 0x00, 0xfd, 0xf6, 0xed, 0xfc, 0xf7, 0x02, 0xe5, 0xfd, 0xdf,
  0xfc, 0xfa, 0xf8, 0xf6, 0x04, 0xf0, 0x00, 0xf8, 0x02, 0xf3, 0xfa, 0xf7,
  0x0e, 0xfe, 0x02, 0xfb, 0x04, 0x05, 0xf2, 0x05, 0xfe, 0x01, 0xff, 0x08,
  0x0c, 0x04, 0x02, 0xf5, 0xf6, 0x08, 0x00, 0xfc, 0xfb, 0xfb, 0x00, 0x12,
  0x07, 0x06, 0x01, 0x09, 0x02, 0x01, 0xf9, 0x04, 0x02, 0xfa, 0xf7, 0x01,
  0x04, 0xfe, 0xf8, 0x08, 0xfb, 0x06, 0xf8, 0x0a, 0xf3, 0x01, 0xf5, 0xff,
  0x00, 0x0f, 0xfa, 0xfc, 0x06, 0x03, 0x05, 0x01, 0xed, 0xfb, 0xfe, 0xf5,
  0x0d, 0x08, 0xfd, 0x0e, 0x10, 0xf7, 0x08, 0x00, 0x01, 0xf5, 0x02, 0x08,
  0x03, 0xfe, 0x05, 0x01, 0x05, 0x07, 0xfa, 0xf0, 0x0b, 0xfe, 0xfd, 0x18,
  0x0d, 0x00, 0x0b, 0x07, 0x0e, 0xf9, 0xfb, 0x01, 0x1c, 0x10, 0x02, 0x17,
  0xfe, 0x09, 0x0b, 0x0b, 0x10, 0xf8, 0x07, 0x06, 0x1f, 0x0b, 0xff, 0x11,
  0x0a, 0xfd, 0x04, 0xfb, 0x0f, 0x05, 0x00, 0xfc, 0x19, 0x00, 0x12, 0x12,
  0x02, 0x02, 0x0a, 0x05, 0x16, 0xf9, 0x04, 0xfb, 0x13, 0x01, 0x08, 0xf0,
  0xfc, 0xf7, 0xf9, 0xfb, 0x08, 0x01, 0xf7, 0x07, 0x06, 0x03, 0x08, 0xfa,
  0x0f, 0x0b, 0xfa, 0x0b, 0x00, 0xfc, 0xfb, 0xfe, 0x10, 0x0f, 0x06, 0xff,
  0x03, 0x04, 0xfe, 0xfa, 0xf5, 0xfb, 0xf7, 0x04, 0x0b, 0xff, 0x0a, 0x30,
  0x11, 0x05, 0x02, 0x04, 0x00, 0x00, 0xfe, 0x02, 0x03, 0x0f, 0xfc, 0x27,
  0x0d, 0xfb, 0xfb, 0xf8, 0xf6, 0x08, 0xfc, 0x08, 0xfe, 0xfb, 0x01, 0x13,
  0xfe, 0x04, 0x0d, 0x0e, 0x0d, 0x06, 0x09, 0x06, 0xfa, 0xff, 0x02, 0x06,
  0x07, 0xfd, 0x10, 0x05, 0x09, 0x03, 0x0d, 0x08, 0xf7, 0x11, 0x09, 0x06,
  0xfd, 0xfd, 0x0a, 0xfa, 0x00, 0x01, 0x02, 0x01, 0x0f, 0xf8, 0xf7, 0x15,
  0x08, 0x05, 0xf6, 0xf9, 0x07, 0xff, 0xf8, 0xf7, 0x11, 0xf9, 0x01, 0x08,
  0x04, 0xf4, 0xf2, 0x05, 0x08, 0xf7, 0xf0, 0xf3, 0x07, 0x06, 0x0b, 0x10,
  0xfb, 0x02, 0xfb, 0xf9, 0xf6, 0xf4, 0x04, 0x00, 0x09, 0xf6, 0x09, 0x25,
  0x00, 0xfc, 0x02, 0xfb, 0x06, 0xff, 0xff, 0x0f, 0x11, 0x08, 0x07, 0x2c,
  0xf9, 0x07, 0x08, 0x00, 0x07, 0x09, 0xfe, 0x03, 0x11, 0x09, 0x0d, 0x0f,
  0x00, 0xfb, 0x06, 0x03, 0x0d, 0x0a, 0x02, 0x09, 0x19, 0x08, 0x04, 0x16,
  0x01, 0x0b, 0xf8, 0x04, 0x01, 0xfb, 0x07, 0x09, 0x02, 0x0c, 0x10, 0x11,
  0x0b, 0x05, 0x03, 0x0a, 0xfc, 0x03, 0x03, 0x05, 0x0c, 0x03, 0x06, 0x14,
  0xf8, 0x05, 0xf7, 0xfe, 0x02, 0x03, 0x06, 0xfc, 0x0a, 0x0a, 0xfb, 0x03,
  0x02, 0xfc, 0xff, 0x04, 0xfd, 0x09, 0x00, 0x03, 0x0a, 0x06, 0x06, 0x16,
  0x0e, 0x02, 0xfd, 0x03, 0x05, 0x01, 0x0a, 0x04, 0xfd, 0x13, 0x07, 0x0b,
  0xff, 0xff, 0x07, 0x12, 0x11, 0xff, 0x16, 0x12, 0x10, 0xf6, 0xf9, 0x19,
  0x0c, 0xfb, 0xfc, 0xf0, 0xf6, 0xf4, 0xfd, 0xf8, 0x03, 0xf4, 0xf1, 0x19,
  0x16, 0x03, 0x12, 0xf2, 0x0e, 0x10, 0xf5, 0x01, 0x0b, 0xea, 0x0f, 0x0f,
  0x05, 0x03, 0x14, 0x08, 0x10, 0x12, 0x02, 0x00, 0xfe, 0xfa, 0x12, 0x20,
  0xf2, 0xfd, 0x01, 0xf1, 0xff, 0xf1, 0xf0, 0x02, 0xf7, 0xf5, 0x17, 0x18,
  0x08, 0xfb, 0xfb, 0xf1, 0x04, 0xf9, 0xf5, 0xfe, 0x0b, 0x04, 0x0f, 0x0f,
  0xf5, 0xfc, 0xf2, 0x03, 0xfa, 0xf9, 0xf7, 0x05, 0x03, 0x0a, 0x09, 0x11,
  0xff, 0x06, 0x0d, 0x01, 0x03, 0x00, 0x0e, 0xf9, 0xf9, 0xfd, 0x09, 0x04,
  0xfd, 0x09, 0x04, 0xfb, 0x00, 0x0c, 0xfe, 0x0b, 0x01, 0x05, 0x0c, 0x14,
  0x01, 0x09, 0x04, 0xff, 0xfe, 0x02, 0x0a, 0x0a, 0x05, 0x00, 0x04, 0x0d,
  0xfa, 0x07, 0xf9, 0x01, 0x06, 0xf8, 0xf9, 0x05, 0x06, 0xfe, 0x09, 0x1c,
  0x02, 0xf7, 0x02, 0x00, 0x03, 0xff, 0xff, 0xfc, 0x08, 0xff, 0x05, 0x12,
  0x06, 0xff, 0x07, 0x03, 0x10, 0x06, 0x0e, 0xfd, 0x08, 0x01, 0x00, 0x21,
  0x12, 0xff, 0xfe, 0xfc, 0x00, 0x0d, 0xfe, 0x00, 0x05, 0xfa, 0x0c, 0x0f,
  0x0e, 0xe6, 0xf7, 0xf0, 0xfe, 0xf7, 0xee, 0xf1, 0x19, 0xed, 0x01, 0x0e,
  0x1f, 0xff, 0x04, 0x13, 0x16, 0x03, 0x15, 0x12, 0x1c, 0x0c, 0x1c, 0x15,
  0x0f, 0xf9, 0x04, 0x0f, 0x1e, 0x04, 0x0d, 0x0d, 0x19, 0x05, 0x11, 0x1c,
  0x0d, 0xf8, 0xed, 0xf7, 0xf7, 0xf5, 0x0a, 0x06, 0x0a, 0xf7, 0xf6, 0x0b,
  0x0b, 0xf6, 0xf9, 0x06, 0x02, 0xff, 0x02, 0xff, 0x05, 0x0a, 0xff, 0x10,
  0xfd, 0xfd, 0x0a, 0x0f, 0xfa, 0x0b, 0x10, 0x00, 0x07, 0x0c, 0xf6, 0x00,
  0x03, 0x0e, 0x0f, 0x06, 0x13, 0x0d, 0x09, 0x13, 0x06, 0xfc, 0x0b, 0xf7,
  0xf5, 0x00, 0x11, 0x05, 0x00, 0xfd, 0x07, 0x0c, 0x02, 0xfd, 0x0d, 0x0c,
  0xf7, 0x05, 0x02, 0x02, 0xfa, 0x02, 0x03, 0x08, 0x11, 0x0a, 0x13, 0x0d,
  0xf7, 0xfe, 0xfe, 0x04, 0xfc, 0xfc, 0xfb, 0x04, 0x05, 0x0b, 0x0e, 0x15,
  0x05, 0x11, 0xfd, 0x07, 0xff, 0xfd, 0x07, 0x0c, 0x09, 0xff, 0x01, 0x1b,
  0x0c, 0x0e, 0x07, 0x00, 0x16, 0x14, 0x07, 0x06, 0x06, 0x14, 0x0f, 0x19,
  0x19, 0x10, 0x08, 0x0f, 0x1a, 0x0b, 0x05, 0x10, 0x0b, 0x05, 0x09, 0x12,
  0x12, 0xe9, 0xfd, 0xfa, 0x0f, 0x02, 0xfe, 0xe9, 0x1b, 0xfe, 0x12, 0x0c,
  0xfb, 0xef, 0xf5, 0xfa, 0xf8, 0x00, 0xff, 0xfa, 0x04, 0x05, 0xf8, 0xf0,
  0xf4, 0x0b, 0x0d, 0xfe, 0x08, 0x08, 0x0c, 0x0d, 0xf6, 0xef, 0xf8, 0xf6,
  0xfe, 0x0a, 0xfb, 0x08, 0x05, 0x10, 0xfe, 0xfe, 0xfc, 0x0a, 0xfc, 0x05,
  0x02, 0x18, 0x13, 0x14, 0x11, 0x14, 0x0c, 0x0d, 0xf4, 0x0d, 0x12, 0xf9,
  0x05, 0x10, 0x0a, 0x06, 0x15, 0x0b, 0x1a, 0x0b, 0xfb, 0x21, 0x04, 0x02,
  0x11, 0x1b, 0x1b, 0x12, 0x0f, 0x09, 0x12, 0x14, 0x12, 0x1c, 0x04, 0x11,
  0x04, 0x00, 0xff, 0x10, 0x04, 0x14, 0x06, 0x1b, 0x08, 0x15, 0x00, 0x00,
  0x06, 0x0b, 0xf7, 0x0a, 0x00, 0xfd, 0x01, 0x01, 0x07, 0x08, 0x00, 0x04,
  0x04, 0x0a, 0x04, 0xfc, 0x07, 0x00, 0xf4, 0x05, 0x16, 0x0c, 0xf3, 0x1c,
  0x0b, 0xff, 0x04, 0x02, 0x04, 0x09, 0x02, 0x06, 0xfa, 0xfe, 0x00, 0x07,
  0x0a, 0x07, 0x14, 0x08, 0x10, 0x06, 0x0f, 0x03, 0x0b, 0xfe, 0x03, 0xfd,
  0x10, 0x13, 0x0e, 0x1c, 0x15, 0x15, 0x0e, 0x07, 0x04, 0x06, 0x0f, 0xfa,
  0x07, 0xfb, 0xf5, 0x04, 0xfc, 0x00, 0x09, 0x09, 0x01, 0xff, 0xfc, 0x00,
  0x02, 0xfc, 0xf9, 0xfb, 0xf8, 0xec, 0xf5, 0xfc, 0xfd, 0xf4, 0xfa, 0xfc,
  0xf1, 0xfc, 0xf2, 0xf9, 0xf0, 0x00, 0xfc, 0xfb, 0x04, 0x01, 0xf1, 0xf2,
  0xfc, 0x00, 0xfd, 0x00, 0x03, 0x00, 0x0d, 0x03, 0x05, 0x0a, 0xfe, 0x05,
  0x08, 0x0c, 0x05, 0xfe, 0xf8, 0x01, 0x0e, 0x09, 0xec, 0x0d, 0xf0, 0xfa,
  0x0a, 0xf9, 0xfd, 0x05, 0xf9, 0x03, 0x0a, 0x11, 0x04, 0x04, 0xf2, 0x03,
  0xf4, 0xf7, 0xf2, 0x09, 0xf7, 0xfa, 0x0b, 0x09, 0xfd, 0x03, 0xf8, 0xff,
  0xf0, 0xfb, 0xff, 0x04, 0xec, 0xf7, 0xff, 0xfd, 0xfe, 0xfe, 0xf3, 0x16,
  0x06, 0xff, 0xf6, 0x09, 0xf8, 0x02, 0xfc, 0x01, 0x07, 0x03, 0xf8, 0x1e,
  0x00, 0xfd, 0xfd, 0xfa, 0x01, 0xfb, 0x0f, 0x0d, 0x0d, 0x0a, 0x04, 0x17,
  0x00, 0xfd, 0x00, 0x11, 0x0f, 0x04, 0x01, 0x08, 0x0a, 0x07, 0x00, 0x0d,
  0x01, 0x06, 0x08, 0x06, 0x09, 0x12, 0x0b, 0x04, 0x07, 0x08, 0x01, 0x04,
  0x07, 0x12, 0x1e, 0x15, 0x0e, 0x0c, 0x16, 0x04, 0x0e, 0x17, 0x08, 0xeb,
  0xff, 0xf7, 0xfa, 0x08, 0xff, 0xf5, 0xfe, 0xfb, 0x02, 0xf4, 0x04, 0xf5,
  0xfd, 0xf5, 0xeb, 0xee, 0xf4, 0xf5, 0xea, 0xef, 0xf3, 0xe8, 0xfe, 0xfa,
  0xf4, 0x02, 0xfb, 0xfb, 0xfd, 0xff, 0xfa, 0xf7, 0xea, 0xff, 0xfa, 0xf5,
  0x09, 0xfe, 0xfe, 0x07, 0xfc, 0x06, 0x0c, 0x00, 0xf2, 0x01, 0xf4, 0x08,
  0x03, 0xff, 0xfd, 0xf7, 0xf1, 0xff, 0x00, 0xfb, 0xdd, 0x03, 0xfc, 0x02,
  0x07, 0xfe, 0xef, 0xf6, 0xef, 0xf9, 0xf2, 0xfa, 0xd8, 0x05, 0x00, 0x0b,
  0x00, 0xfa, 0xef, 0xee, 0xf1, 0xf4, 0xef, 0xf6, 0xee, 0x00, 0xf8, 0x13,
  0x04, 0xf5, 0xf6, 0xfb, 0xe6, 0x05, 0xf6, 0xf9, 0xec, 0x07, 0xfc, 0x2e,
  0x07, 0x01, 0xf7, 0x03, 0xea, 0x02, 0xf7, 0x00, 0xf3, 0x0b, 0xec, 0x38,
  0xef, 0x04, 0xf7, 0x03, 0xef, 0xf1, 0x04, 0xfe, 0x09, 0xfa, 0xf2, 0x16,
  0xf9, 0xf9, 0x07, 0xfa, 0xfa, 0xf4, 0xfc, 0x0a, 0x08, 0x01, 0xf9, 0x01,
  0xf4, 0xff, 0xf7, 0x0c, 0x01, 0xf8, 0x04, 0xf7, 0x01, 0xfb, 0x00, 0xf2,
  0xf2, 0x01, 0xfb, 0x0a, 0x0f, 0x0d, 0x0b, 0x0b, 0xfd, 0xf7, 0xf9, 0xf6,
  0xef, 0xed, 0xfc, 0xf7, 0xf7, 0xfa, 0xf2, 0xf9, 0x04, 0xfb, 0xf9, 0xff,
  0xe7, 0xe6, 0xee, 0xe3, 0xf3, 0xf3, 0xf1, 0xec, 0xff, 0xf8, 0xf4, 0xf3,
  0xf8, 0x00, 0x01, 0xf5, 0xfe, 0xff, 0x04, 0x0d, 0xe7, 0xf7, 0xfb, 0xfa,
  0xf7, 0xf7, 0xf6, 0xfd, 0xf7, 0xfe, 0xfe, 0x04, 0xf0, 0xf5, 0xf2, 0xff,
  0xfb, 0xfa, 0xfb, 0xfb, 0xf3, 0x02, 0xf2, 0xf3, 0xe7, 0x00, 0xf0, 0x09,
  0x06, 0xf6, 0x00, 0xfb, 0xfe, 0xfa, 0x03, 0xff, 0xf0, 0xf7, 0xef, 0xfe,
  0xf4, 0xf7, 0xf9, 0xf1, 0xec, 0xfe, 0xfa, 0xf2, 0xf7, 0x03, 0xfc, 0x1c,
  0xf5, 0xf8, 0xf0, 0x02, 0xfb, 0xfb, 0xf6, 0xf3, 0xfc, 0x05, 0xec, 0x26,
  0xed, 0xee, 0xf4, 0xec, 0xee, 0xe7, 0xf6, 0xf2, 0x10, 0x07, 0xf9, 0x28,
  0xe2, 0xf3, 0xe7, 0xf3, 0xe3, 0xef, 0xf2, 0xe8, 0x07, 0xf5, 0xde, 0x19,
  0xf0, 0xfc, 0xf6, 0xf4, 0xed, 0xf7, 0xed, 0xff, 0x0a, 0xf2, 0xf4, 0xfc,
  0xf1, 0x05, 0x05, 0x00, 0xff, 0x04, 0x04, 0x00, 0x01, 0xe8, 0xf0, 0xf3,
  0xef, 0xf7, 0xf2, 0xec, 0xfd, 0xed, 0xf2, 0xf5, 0xfa, 0xf6, 0xfd, 0xec,
  0xe2, 0xe2, 0xe0, 0xe3, 0xec, 0xdf, 0xed, 0xed, 0xfb, 0xe9, 0xe4, 0xfb,
  0xef, 0xe2, 0xeb, 0xde, 0xee, 0xde, 0xd8, 0xea, 0xf6, 0xe6, 0xea, 0xfa,
  0xf7, 0xf0, 0xf6, 0xf9, 0xf2, 0xf0, 0xf8, 0xf3, 0xe3, 0xfa, 0xf2, 0xee,
  0x00, 0xf8, 0x05, 0xf9, 0xf3, 0x04, 0xf9, 0xfb, 0xe3, 0xf7, 0xfc, 0x03,
  0xfc, 0x00, 0x08, 0x05, 0xfb, 0xff, 0x04, 0xfe, 0xef, 0x01, 0xfa, 0x05,
  0x08, 0xf5, 0x01, 0x01, 0xf7, 0x06, 0xfe, 0x03, 0xef, 0xf5, 0xf0, 0x16,
  0xfe, 0x06, 0xfe, 0x04, 0xf9, 0x07, 0xf6, 0x01, 0xed, 0xf7, 0xf1, 0x25,
  0xf5, 0xfa, 0xfb, 0xf6, 0xf5, 0x03, 0xec, 0xfd, 0x01, 0x02, 0xfd, 0x2a,
  0xf9, 0xf2, 0xf0, 0xec, 0xef, 0xea, 0xee, 0xe6, 0xfc, 0xf0, 0xef, 0x27,
  0xf0, 0xdf, 0xf1, 0xe9, 0xf2, 0xf4, 0xe7, 0xf1, 0x01, 0xeb, 0xfd, 0x1c,
  0xf9, 0xf3, 0xeb, 0xe7, 0xe2, 0xe8, 0xf0, 0xdf, 0xf5, 0xf5, 0x00, 0xe5,
  0x01, 0x03, 0xfd, 0xf8, 0xff, 0x01, 0x03, 0xf1, 0xed, 0xed, 0xfc, 0xe8,
  0x0c, 0xf5, 0xff, 0xf4, 0x00, 0xfb, 0xfb, 0x06, 0xe9, 0xf6, 0x06, 0xdd,
  0xe4, 0xda, 0xda, 0xe2, 0xe4, 0xd4, 0xf1, 0xf4, 0xea, 0xe9, 0xe3, 0xeb,
  0xf1, 0xef, 0xe3, 0xed, 0xeb, 0xe3, 0xda, 0xf0, 0xf6, 0xea, 0xeb, 0xe9,
  0xfb, 0xf2, 0x04, 0xfe, 0xec, 0xf8, 0xf9, 0xf9, 0xdb, 0xeb, 0xed, 0xf2,
  0x10, 0x05, 0x08, 0xfa, 0x09, 0xfe, 0xf8, 0xfb, 0xdd, 0x10, 0xf7, 0x0a,
  0xfa, 0x04, 0xfe, 0x05, 0x00, 0x04, 0x01, 0xf6, 0xee, 0xfe, 0x05, 0x0b,
  0x02, 0x06, 0x08, 0x0b, 0x03, 0xf8, 0xff, 0x03, 0xd3, 0x04, 0xfe, 0x10,
  0xfa, 0x00, 0xfe, 0x06, 0xff, 0x0a, 0xff, 0x04, 0xdc, 0x0d, 0x06, 0x16,
  0x04, 0xf3, 0xf6, 0xf4, 0xf6, 0xff, 0xef, 0x03, 0x00, 0xff, 0xf3, 0x19,
  0x02, 0xef, 0xfa, 0xee, 0xf3, 0xef, 0xe6, 0xe8, 0xfe, 0xf1, 0xfc, 0x2d,
  0xf7, 0xeb, 0xf8, 0xf7, 0xec, 0xe9, 0xe7, 0xf7, 0xf3, 0xff, 0x0c, 0xee,
  0xf9, 0xf4, 0x01, 0xf8, 0xed, 0xf1, 0xf9, 0xea, 0xf4, 0xf4, 0x0c, 0xde,
  0x00, 0x09, 0x0f, 0xf9, 0x06, 0x0a, 0xfc, 0x06, 0xf5, 0x0c, 0x04, 0xeb,
  0x0d, 0x0e, 0x12, 0x15, 0x11, 0x16, 0x15, 0x14, 0xf3, 0x0d, 0x0f, 0xd0,
  0xf7, 0xee, 0xf4, 0x04, 0xf9, 0xe3, 0xf6, 0x00, 0xf0, 0xf4, 0x03, 0xee,
  0xf0, 0xe7, 0xe9, 0xf0, 0xe7, 0xe0, 0xea, 0xef, 0xf7, 0xe8, 0xe3, 0xf8,
  0xfb, 0x05, 0xf9, 0xf2, 0xef, 0x03, 0xf9, 0x0d, 0xfa, 0xf2, 0xf8, 0xfd,
  0x09, 0x0c, 0x08, 0x02, 0x03, 0xff, 0x02, 0xfe, 0xef, 0xfa, 0xff, 0x08,
  0x08, 0x02, 0x0f, 0xfe, 0x02, 0x02, 0x04, 0x0c, 0xea, 0x02, 0x0e, 0x02,
  0x06, 0xfc, 0x0a, 0x09, 0x07, 0x03, 0x06, 0x10, 0xe0, 0x0b, 0x06, 0x1a,
  0x08, 0xf9, 0xfb, 0x01, 0x0d, 0x04, 0x0a, 0x06, 0xf0, 0x0f, 0x01, 0x17,
  0x0c, 0xfb, 0x08, 0xff, 0xfe, 0xfb, 0xfd, 0x08, 0x06, 0x0c, 0x06, 0x3b,
  0x0d, 0xfa, 0x03, 0x08, 0xf5, 0xfb, 0xf1, 0xf3, 0x0a, 0x12, 0x03, 0x1d,
  0xf8, 0x00, 0x04, 0xf3, 0xf1, 0xf0, 0x00, 0xf3, 0x0e, 0xf6, 0x08, 0xf6,
  0xf6, 0xf2, 0x02, 0x04, 0xfe, 0xff, 0xfb, 0xf9, 0xf1, 0x03, 0xfa, 0xec,
  0x0b, 0x13, 0x0e, 0x0d, 0xfe, 0x00, 0x0c, 0x13, 0xfe, 0x0e, 0xfa, 0xec,
  0x07, 0x0c, 0x0e, 0x11, 0x0a, 0x1c, 0x07, 0x0f, 0x0b, 0x0e, 0x04, 0xf0,
  0xf6, 0xf3, 0xf5, 0xfa, 0x08, 0xf0, 0x06, 0xfd, 0xfe, 0xe7, 0xf6, 0xe7,
  0xe2, 0xe4, 0xdb, 0xe0, 0xe6, 0xd8, 0xec, 0xe9, 0xef, 0xe7, 0xe2, 0xfa,
  0x01, 0xf7, 0xe8, 0xfa, 0xe8, 0xdf, 0x04, 0x0b, 0x05, 0xf2, 0xe5, 0xf2,
  0x0f, 0x01, 0x10, 0xfa, 0xfd, 0xfd, 0xfb, 0x0f, 0xee, 0xfc, 0xf3, 0xf9,
  0x09, 0x13, 0x14, 0x01, 0x04, 0x0d, 0x02, 0x06, 0xde, 0x07, 0x0d, 0xef,
  0x07, 0x0e, 0x09, 0x0d, 0x06, 0x08, 0x06, 0x02, 0xe8, 0xff, 0x0c, 0x14,
  0x10, 0x07, 0x09, 0x14, 0x14, 0x01, 0x05, 0x15, 0xec, 0x07, 0x05, 0x00,
  0x00, 0x08, 0xfa, 0x0d, 0xfe, 0x0e, 0x0b, 0x13, 0x06, 0x06, 0x00, 0x24,
  0x00, 0x03, 0x05, 0xfc, 0xf9, 0x09, 0x03, 0xfb, 0x0e, 0x0b, 0x09, 0x0f,
  0xff, 0x02, 0xf9, 0xf2, 0x02, 0x03, 0xf4, 0xf9, 0xfa, 0x01, 0x08, 0x1a,
  0x01, 0xfa, 0x03, 0x08, 0x01, 0xf9, 0xff, 0xf7, 0xf5, 0x05, 0xfa, 0x1b,
  0xfa, 0xf6, 0xfe, 0x00, 0xf6, 0x09, 0xf7, 0xfc, 0xff, 0x0f, 0xf9, 0x1d,
  0xfa, 0x0a, 0x00, 0x0a, 0x0f, 0x04, 0x01, 0xfc, 0x0a, 0x09, 0xfe, 0x08,
  0xe4, 0xf8, 0xfe, 0xff, 0xfc, 0xf5, 0xf9, 0xf6, 0xf5, 0xe4, 0xee, 0xf1,
  0xeb, 0xe9, 0xf0, 0xf1, 0xfa, 0xe7, 0xe4, 0xea, 0xf8, 0xdf, 0xec, 0xfd,
  0xf6, 0xf1, 0xe8, 0xf1, 0xe3, 0xef, 0xf3, 0xed, 0xfe, 0xef, 0xe9, 0xfb,
  0x01, 0xfe, 0x01, 0x04, 0xf1, 0xf8, 0x08, 0x0a, 0x04, 0x02, 0xf0, 0xe5,
  0x01, 0xfc, 0x03, 0x0c, 0x0c, 0x05, 0xfb, 0x03, 0xf5, 0xff, 0x00, 0xe5,
  0x08, 0x11, 0x12, 0xff, 0x12, 0x0c, 0x11, 0x13, 0xf4, 0x01, 0x04, 0xe6,
  0x0d, 0x09, 0x14, 0x14, 0x0f, 0x0a, 0xfe, 0x0c, 0xf1, 0x05, 0xfc, 0xea,
  0xfd, 0x03, 0xfa, 0x06, 0x05, 0xf2, 0xf6, 0x0a, 0xf0, 0xf1, 0x03, 0xfc,
  0x04, 0xf9, 0xfe, 0x0a, 0xfa, 0x04, 0x07, 0xf9, 0x04, 0xf9, 0xfb, 0x11,
  0x16, 0x0e, 0xff, 0xfc, 0x00, 0xfc, 0xfa, 0xfa, 0x03, 0x13, 0x04, 0x09,
  0x01, 0xff, 0x00, 0x07, 0x03, 0x0b, 0xfa, 0x0b, 0x0c, 0x02, 0x0a, 0x0f,
  0xfc, 0x05, 0xf5, 0xf8, 0xfb, 0xf4, 0xfd, 0xf5, 0x03, 0xfb, 0xf0, 0x21,
  0xf6, 0xfd, 0xff, 0x05, 0xfd, 0x02, 0x03, 0xff, 0xf6, 0x06, 0xf1, 0x0a,
  0xf9, 0xf1, 0xfc, 0x01, 0xf9, 0xfa, 0xf1, 0xfe, 0x00, 0xec, 0xfb, 0x02,
  0xe9, 0xf7, 0xee, 0xe9, 0xfc, 0xe4, 0xe6, 0xea, 0xed, 0xe8, 0xf9, 0xf0,
  0xf3, 0xed, 0xe2, 0xe2, 0xe8, 0xeb, 0xf0, 0xee, 0xed, 0xe8, 0xeb, 0xf7,
  0xea, 0xf5, 0xfe, 0xf2, 0xfb, 0xfe, 0xfb, 0xfe, 0xee, 0xef, 0xed, 0xec,
  0x02, 0xfc, 0x00, 0xf5, 0xee, 0xfe, 0xfb, 0x09, 0xf6, 0xfe, 0xec, 0xc8,
  0x06, 0x15, 0x1a, 0x0f, 0x0e, 0x14, 0x05, 0x04, 0xf8, 0x07, 0xfe, 0xd9,
  0x0f, 0x13, 0x0f, 0x0f, 0x10, 0x10, 0x12, 0x03, 0xf9, 0x01, 0x10, 0xc8,
  0x13, 0x0a, 0x0c, 0xff, 0x17, 0x09, 0x02, 0x13, 0xf7, 0x0a, 0x15, 0xe0,
  0x05, 0x0a, 0x0d, 0x0c, 0x03, 0x0a, 0x11, 0xfe, 0x0a, 0x13, 0x14, 0xed,
  0x15, 0x07, 0x07, 0x05, 0x00, 0x07, 0x0c, 0x0f, 0x13, 0x0c, 0x08, 0x17,
  0x0c, 0x03, 0x12, 0xff, 0xfe, 0x0e, 0x0d, 0x00, 0xff, 0x0d, 0x07, 0x18,
  0xf5, 0xf7, 0x04, 0x03, 0x03, 0xf5, 0x0a, 0xf7, 0x01, 0xfe, 0x00, 0x05,
  0xfb, 0x04, 0xf3, 0x00, 0xf2, 0xfb, 0xfd, 0xfb, 0x08, 0xf7, 0xf6, 0xf7,
  0xf8, 0xf8, 0xf4, 0x00, 0x07, 0xf9, 0xf5, 0x05, 0x02, 0xea, 0xf8, 0xf1,
  0xfc, 0xf1, 0xfc, 0xf7, 0xf8, 0xed, 0xf2, 0xf6, 0xe7, 0xe2, 0xf8, 0xf8,
  0xe1, 0xea, 0xf8, 0xe5, 0xe7, 0xe7, 0xe2, 0xed, 0xed, 0xeb, 0xf5, 0xee,
  0xeb, 0xee, 0xe2, 0xed, 0xde, 0xed, 0xff, 0xee, 0xf5, 0x02, 0xe3, 0xf1,
  0xf5, 0xfb, 0xf9, 0xef, 0xf1, 0xfb, 0xf7, 0x00, 0x01, 0x06, 0xf5, 0xe5,
  0xf8, 0x00, 0x05, 0x05, 0x07, 0x09, 0x06, 0xff, 0x03, 0x11, 0xf1, 0xb9,
  0x03, 0x15, 0x0f, 0x12, 0x03, 0x03, 0x06, 0x1c, 0x0e, 0x05, 0x01, 0xd4,
  0x06, 0x17, 0x13, 0x07, 0x10, 0x0b, 0x03, 0x04, 0x13, 0x14, 0x00, 0xce,
  0xf6, 0x06, 0x0d, 0x02, 0x0e, 0xfe, 0x04, 0x01, 0x06, 0x09, 0x04, 0xf4,
  0x00, 0x13, 0xfe, 0x0b, 0x09, 0xfe, 0x09, 0xfe, 0x13, 0x00, 0x0c, 0x04,
  0x05, 0x05, 0x0e, 0x02, 0x07, 0x0e, 0x0a, 0x0d, 0x03, 0xfd, 0x02, 0x0c,
  0xf0, 0xfa, 0x0b, 0x0d, 0xfc, 0xf7, 0x04, 0xfb, 0xfb, 0xf3, 0xf0, 0x00,
  0xef, 0xfe, 0xea, 0x01, 0xea, 0xee, 0xf0, 0xf9, 0xf4, 0xf4, 0xef, 0xf1,
  0xf9, 0xf3, 0xf7, 0xf8, 0xf2, 0xea, 0xf3, 0xeb, 0xed, 0xdc, 0xf5, 0xf7,
  0xfa, 0xf6, 0x04, 0xee, 0xfe, 0x06, 0xf5, 0xf7, 0xfa, 0xf2, 0x05, 0x03,
  0xf7, 0xe4, 0xe7, 0xf0, 0xfc, 0xe9, 0xf2, 0xf5, 0xf0, 0xfc, 0xee, 0xf2,
  0xe4, 0xed, 0xd7, 0xf0, 0xea, 0xda, 0xef, 0xed, 0xf2, 0xed, 0xe1, 0xf4,
  0xf9, 0xf5, 0xec, 0xf1, 0xde, 0xe5, 0xf6, 0xf0, 0xfd, 0xf2, 0xde, 0xf0,
  0xf8, 0xf5, 0xef, 0x00, 0xee, 0xf0, 0xff, 0xf4, 0xef, 0xfb, 0xcd, 0xd9,
  0xf6, 0xf2, 0xf2, 0xf9, 0xf6, 0xf0, 0x06, 0xf4, 0xfd, 0xf9, 0xe1, 0xeb,
  0xfa, 0xf8, 0xf8, 0xf8, 0x00, 0x05, 0xf8, 0xfd, 0xfc, 0xf5, 0xed, 0xe9,
  0xec, 0xfd, 0x03, 0x00, 0xfd, 0x00, 0xf7, 0xfc, 0x02, 0xec, 0xf2, 0x01,
  0xea, 0xfe, 0xfb, 0xf8, 0xf3, 0xfc, 0xfb, 0x04, 0xf2, 0xee, 0xf5, 0xff,
  0xf7, 0xf6, 0xed, 0xfc, 0xf1, 0x05, 0xf1, 0xfe, 0xf6, 0xf4, 0xf7, 0xee,
  0xed, 0xfa, 0xf3, 0x02, 0xf6, 0xfd, 0xf5, 0x01, 0xeb, 0xf0, 0xe6, 0xea,
  0xef, 0xf8, 0xed, 0xf6, 0xfc, 0xf3, 0xf6, 0xf0, 0xf6, 0xda, 0xf1, 0xf5,
  0xfc, 0xec, 0xdf, 0xeb, 0xf4, 0xdd, 0xe7, 0xf2, 0xf7, 0xf7, 0xfc, 0xec,
  0xfc, 0x05, 0x04, 0xfe, 0xff, 0x00, 0x01, 0xf8, 0xfb, 0xf2, 0xf4, 0xfc,
  0xfd, 0x03, 0xf6, 0xf5, 0x03, 0x05, 0xf8, 0xf2, 0x01, 0xef, 0x01, 0x03,
  0xfb, 0xf1, 0xec, 0xe4, 0xfb, 0xe7, 0xea, 0xe1, 0xf6, 0xef, 0xee, 0xfe,
  0xeb, 0xdf, 0xe3, 0xde, 0xf7, 0xda, 0xdb, 0xd0, 0xe8, 0xdd, 0xee, 0xfc,
  0xe2, 0xd9, 0xd1, 0xdb, 0xdd, 0xd5, 0xdf, 0xdc, 0xd5, 0xe4, 0xf3, 0xef,
  0xdd, 0xe4, 0xd5, 0xdc, 0xd1, 0xe7, 0xe9, 0xe1, 0xde, 0xe8, 0xeb, 0xf5,
  0xdd, 0xe7, 0xec, 0xf0, 0xe6, 0xe4, 0xf0, 0xdb, 0xe5, 0xd7, 0xea, 0xf6,
  0xe1, 0xef, 0xdd, 0xed, 0xd5, 0xf5, 0xe5, 0xf2, 0xf4, 0xe3, 0xf1, 0xe2,
  0xe6, 0xf7, 0xec, 0xf8, 0xf1, 0xf1, 0xfc, 0xed, 0xec, 0xe5, 0xf1, 0xe4,
  0xe4, 0xf9, 0xeb, 0xf2, 0xf0, 0xf3, 0xf6, 0xed, 0xf6, 0xd0, 0xf3, 0xf2,
  0xfb, 0xda, 0xed, 0xe9, 0xe7, 0xf5, 0xf1, 0xf9, 0xf3, 0xf1, 0xf4, 0xf5,
  0xfa, 0xf6, 0xeb, 0xe4, 0xfc, 0xf6, 0xf8, 0xf3, 0xf2, 0xfe, 0xf4, 0xf5,
  0xf0, 0x01, 0xf8, 0xff, 0xf9, 0xf6, 0x08, 0xfa, 0xf2, 0x03, 0x05, 0xfc,
  0x14, 0xf9, 0xfe, 0x05, 0x07, 0xf6, 0xfe, 0xf7, 0x09, 0x07, 0x0f, 0x0e,
  0x09, 0xfb, 0xf2, 0xf0, 0x0e, 0xf7, 0xfa, 0xff, 0x16, 0xf5, 0xfd, 0x0b,
  0x02, 0xf1, 0xf0, 0xe3, 0xfb, 0xe6, 0xe7, 0xe5, 0x10, 0xfd, 0xf7, 0x0d,
  0x03, 0xe1, 0xcc, 0xdd, 0xfa, 0xe2, 0xde, 0xe2, 0x13, 0xec, 0xe8, 0x0a,
  0xf6, 0xd4, 0xd6, 0xdd, 0xed, 0xcb, 0xd5, 0xd2, 0x0c, 0xd2, 0xdc, 0x03,
  0xf7, 0xce, 0xce, 0xdc, 0xf7, 0xda, 0xd7, 0xcb, 0xff, 0xd9, 0xea, 0xfd,
  0xf1, 0xe2, 0xd4, 0xd7, 0xed, 0xd6, 0xd7, 0xd4, 0x0b, 0xd6, 0xf1, 0x05,
  0xf8, 0xd9, 0xd1, 0xe3, 0xf1, 0xd4, 0xd5, 0xd2, 0x01, 0xdf, 0xf3, 0xfe,
  0xf3, 0xec, 0xe1, 0xd6, 0xfa, 0xd8, 0xde, 0xde, 0x0c, 0xdd, 0xf8, 0x00,
  0xf7, 0xf5, 0xe3, 0xe7, 0xf7, 0xe9, 0xe1, 0xe8, 0xff, 0xe5, 0x00, 0x11,
  0x04, 0xf4, 0xe9, 0xe1, 0xfe, 0xf9, 0xf6, 0xf8, 0x0e, 0xf1, 0xf5, 0x07,
  0x10, 0xff, 0xfb, 0xf4, 0x0d, 0xf8, 0x06, 0xf4, 0x10, 0x02, 0x0d, 0x16,
  0xff, 0x02, 0xfa, 0x06, 0x01, 0x05, 0xfe, 0x08, 0x0a, 0xfd, 0x01, 0x03,
  0x05, 0xf5, 0xf2, 0xfd, 0x10, 0xf9, 0xf3, 0xfd, 0x11, 0xf8, 0x04, 0x12,
  0x02, 0xf7, 0x0c, 0x00, 0x0f, 0x07, 0x07, 0x00, 0x10, 0xef, 0xfb, 0x0a,
  0x02, 0xf9, 0xfc, 0xf0, 0xf4, 0xf1, 0x01, 0xf5, 0x09, 0xed, 0xfb, 0x0d,
  0x04, 0x00, 0x00, 0xf1, 0xfc, 0x00, 0xf1, 0xee, 0x01, 0xea, 0xfb, 0x02,
  0xf9, 0xee, 0xfe, 0xed, 0xf0, 0xfb, 0xfe, 0x01, 0x06, 0xe6, 0xf5, 0xfc,
  0xf6, 0xf8, 0x06, 0x03, 0xf5, 0xfb, 0xf8, 0xf0, 0x02, 0xef, 0x00, 0xfb,
  0xf5, 0xf0, 0xfe, 0xfb, 0x04, 0xf0, 0xef, 0xfe, 0xfa, 0xf3, 0xfb, 0x01,
  0xf8, 0xf6, 0xfb, 0xf7, 0xfa, 0x01, 0xfb, 0xeb, 0xfc, 0xe5, 0xee, 0xf9,
  0xe8, 0xdb, 0xec, 0xee, 0xe4, 0xe7, 0xec, 0xee, 0xf0, 0xe6, 0xea, 0xf9,
  0xf2, 0xe0, 0xe6, 0xee, 0xe9, 0xe2, 0xdd, 0xee, 0x01, 0xdf, 0xe3, 0xf8,
  0xf4, 0xee, 0xe8, 0xe3, 0xf8, 0xe9, 0xe2, 0xe8, 0x06, 0xde, 0xef, 0x05,
  0xed, 0xdd, 0xed, 0xdd, 0xf8, 0xe4, 0xdc, 0xdf, 0x0d, 0xe0, 0xe7, 0x05,
  0x03, 0xff, 0xf5, 0xf1, 0x09, 0xf1, 0xe5, 0xe4, 0x03, 0xe9, 0x02, 0x08,
  0x08, 0x02, 0x05, 0x13, 0x05, 0x14, 0x10, 0xff, 0x12, 0x15, 0x0e, 0x11,
  0xfe, 0xf7, 0x0a, 0x00, 0xfb, 0x01, 0x06, 0x0d, 0x12, 0x0a, 0x08, 0x0d,
  0x02, 0x06, 0x0e, 0xf6, 0x0c, 0x09, 0x10, 0xfb, 0x0e, 0x06, 0x07, 0x08,
  0x12, 0x0b, 0x16, 0x04, 0x07, 0x11, 0x06, 0x0f, 0x0b, 0x01, 0x0d, 0x05,
  0x02, 0x05, 0x04, 0x10, 0x0d, 0x00, 0x0b, 0x09, 0x03, 0x0b, 0x0d, 0x0a,
  0x01, 0xfb, 0x09, 0xfa, 0x12, 0xfb, 0x02, 0xfd, 0x12, 0x05, 0x0b, 0xfd,
  0xf4, 0xf4, 0x04, 0xfc, 0x02, 0xfc, 0xf6, 0xf2, 0x09, 0x02, 0x00, 0xef,
  0x03, 0xfe, 0xfa, 0x01, 0xf9, 0x06, 0x00, 0x01, 0xfc, 0xfc, 0x07, 0xf7,
  0x01, 0xfd, 0xf6, 0xfe, 0x06, 0xf6, 0xfb, 0xf4, 0xff, 0xff, 0x10, 0xff,
  0x08, 0xfa, 0x01, 0x05, 0xf3, 0xfa, 0xef, 0xf8, 0xed, 0x06, 0x04, 0x05,
  0xfb, 0x04, 0xf4, 0x02, 0xf9, 0xfd, 0xfc, 0xf8, 0xf8, 0xff, 0xfc, 0xfa,
  0xf6, 0xea, 0xfa, 0xfd, 0xe7, 0xed, 0xe9, 0xf3, 0xf4, 0xfb, 0xfa, 0x01,
  0xf7, 0xe4, 0xd3, 0xfb, 0xfa, 0xf5, 0xdd, 0xff, 0xff, 0xf7, 0xf8, 0x05,
  0x12, 0x08, 0x10, 0xff, 0x14, 0x16, 0x0b, 0x14, 0x0c, 0x08, 0x14, 0x05,
  0xfc, 0xfa, 0x07, 0x0a, 0x03, 0x0d, 0x0a, 0x06, 0x16, 0xfd, 0x0b, 0x07,
  0x0a, 0x0a, 0xfb, 0xfa, 0xfd, 0x00, 0x08, 0x11, 0x0c, 0x13, 0x0e, 0xf7,
  0x02, 0x06, 0xfe, 0xf9, 0x08, 0x06, 0x07, 0x04, 0x15, 0x0e, 0x10, 0xe4,
  0x05, 0x15, 0x11, 0x01, 0x0c, 0x06, 0x11, 0x06, 0x06, 0xf9, 0x00, 0xe1,
  0xfd, 0x0e, 0x0b, 0x01, 0x13, 0x14, 0x12, 0xfe, 0xfd, 0x00, 0x0c, 0xd7,
  0xfc, 0xff, 0x01, 0x0c, 0x0d, 0x10, 0x01, 0xfa, 0x01, 0xfd, 0x0f, 0xd8,
  0x10, 0xff, 0x02, 0x04, 0x0f, 0x0e, 0x0a, 0xf8, 0x02, 0x10, 0x05, 0xd7,
  0x0d, 0x05, 0x02, 0x08, 0x03, 0x03, 0x12, 0x0e, 0xed, 0x0c, 0x0c, 0xf3,
  0x00, 0x0d, 0xfc, 0x09, 0x05, 0x06, 0x09, 0x03, 0xfe, 0xfd, 0x07, 0xff,
  0xfd, 0x05, 0xff, 0x06, 0xfb, 0x03, 0xfe, 0x02, 0xfa, 0x0d, 0x09, 0x0d,
  0xf9, 0xf5, 0xef, 0xf4, 0xfa, 0xf8, 0xf5, 0xef, 0x01, 0xee, 0xfd, 0x06,
  0xe3, 0xf6, 0xe1, 0xea, 0xe8, 0xe0, 0xed, 0xf1, 0x04, 0xe5, 0xf2, 0x04,
  0x0e, 0x0d, 0x13, 0x16, 0x1b, 0x19, 0x02, 0x16, 0x06, 0x0c, 0x10, 0x18,
  0x0c, 0x0b, 0x09, 0x0a, 0x06, 0xff, 0x01, 0x09, 0x0a, 0x0b, 0x10, 0xf7,
  0xfe, 0xfd, 0xfb, 0x04, 0x05, 0x03, 0x06, 0x05, 0x01, 0x02, 0xfa, 0xe6,
  0xf3, 0x09, 0x01, 0x01, 0x08, 0xff, 0x09, 0x0c, 0x07, 0xfa, 0xf5, 0xf0,
  0x02, 0x08, 0x0d, 0xfa, 0x02, 0xf8, 0x0d, 0xff, 0xfa, 0xfb, 0x07, 0xcb,
  0xfc, 0xff, 0x0e, 0xfb, 0xfd, 0x10, 0xfc, 0x0d, 0xfc, 0xf3, 0xfc, 0xb7,
  0x10, 0x07, 0x10, 0x0e, 0x18, 0x05, 0x05, 0x18, 0x01, 0x11, 0x0a, 0xfb,
  0x17, 0x16, 0x0a, 0x0d, 0x14, 0x0e, 0x14, 0x0d, 0x01, 0x14, 0x0a, 0xfd,
  0x09, 0x08, 0x07, 0x12, 0x13, 0x11, 0x09, 0x13, 0x0b, 0x16, 0x0c, 0xf8,
  0x03, 0x05, 0xff, 0x03, 0x0b, 0x06, 0x04, 0x0c, 0xfa, 0xfb, 0xfe, 0x0d,
  0xff, 0x05, 0xf6, 0x08, 0xfa, 0xfb, 0x05, 0xff, 0xfb, 0x09, 0x0b, 0x03,
  0xf2, 0xf8, 0xf5, 0xef, 0xf7, 0xf1, 0xff, 0xfb, 0xf9, 0xec, 0xf6, 0xfe,
  0xe7, 0xe2, 0xeb, 0xdb, 0xe0, 0xe0, 0xea, 0xda, 0xf5, 0xcb, 0xd7, 0x0c,
  0x18, 0x1b, 0x14, 0x09, 0x14, 0x1d, 0x14, 0x16, 0x04, 0x0f, 0x13, 0x18,
  0x03, 0x0f, 0x09, 0x01, 0x09, 0xff, 0x0c, 0xfe, 0x15, 0xf8, 0x0d, 0x01,
  0x06, 0x0b, 0xfc, 0x06, 0xfe, 0x09, 0xfb, 0xfe, 0x07, 0x05, 0x01, 0xf8,
  0x04, 0xf8, 0x09, 0x07, 0xfa, 0xfa, 0x04, 0xfb, 0x08, 0xf9, 0x0a, 0xfb,
  0xf4, 0xf4, 0xf2, 0x0a, 0xf3, 0x00, 0x04, 0xf7, 0x07, 0xfb, 0xf7, 0xe7,
  0xf3, 0xea, 0xe6, 0xfa, 0xe6, 0xe9, 0x02, 0xfb, 0x05, 0xf2, 0xe6, 0xf6,
  0xf0, 0x04, 0xf3, 0xf6, 0xfb, 0xf6, 0x11, 0xfd, 0x06, 0xf9, 0xe5, 0x08,
  0x0c, 0x14, 0x14, 0x09, 0x13, 0x0a, 0x11, 0x0e, 0x0e, 0x08, 0x07, 0x14,
  0x08, 0x09, 0x09, 0x0d, 0x0b, 0x0d, 0x07, 0x15, 0x17, 0x11, 0xf9, 0x11,
  0xf4, 0x01, 0xff, 0xfb, 0x07, 0x03, 0x0b, 0xfe, 0x05, 0x01, 0xf8, 0x0c,
  0xfe, 0x06, 0xfa, 0xff, 0x00, 0x02, 0xff, 0x0a, 0xf9, 0x03, 0xf9, 0x13,
  0xe8, 0xee, 0xed, 0xfe, 0xf5, 0xe8, 0xf3, 0x01, 0x0e, 0xee, 0xff, 0x18,
  0x0d, 0xe9, 0xe6, 0xe1, 0xdc, 0xfa, 0xe1, 0xda, 0xec, 0x00, 0xf9, 0x01,
  0x12, 0x1a, 0x15, 0x06, 0x16, 0x22, 0x14, 0x0a, 0x12, 0x16, 0x11, 0x08,
  0x04, 0x05, 0xfc, 0x10, 0x0c, 0x07, 0xfc, 0xff, 0x02, 0x0b, 0x09, 0x0a,
  0x0d, 0x02, 0x01, 0x09, 0xf3, 0x05, 0x05, 0x03, 0x08, 0xf9, 0xfe, 0x07,
  0xfe, 0xf8, 0xf5, 0x03, 0x03, 0xf6, 0x0c, 0x0a, 0x0f, 0x01, 0xff, 0x1c,
  0xf6, 0xf4, 0xfe, 0x0b, 0xf9, 0xfb, 0x06, 0x05, 0xfe, 0xf4, 0xfd, 0x38,
  0xdb, 0xde, 0xe0, 0xe5, 0xe6, 0xe2, 0xed, 0xe8, 0xe6, 0xd4, 0xda, 0x39,
  0xfd, 0xe5, 0xee, 0xe0, 0xe6, 0xf1, 0xf4, 0xf1, 0xb9, 0xe2, 0xd7, 0x2e,
  0x12, 0x0d, 0xfe, 0x0c, 0x02, 0x03, 0xfb, 0x0c, 0xec, 0x04, 0xf3, 0x07,
  0x03, 0xfc, 0x0d, 0x0d, 0x0c, 0xfe, 0x0e, 0x04, 0x12, 0xfe, 0x08, 0x0c,
  0x11, 0xfa, 0x0d, 0x0e, 0x0b, 0x01, 0xfd, 0x10, 0x06, 0x06, 0x09, 0x1a,
  0x06, 0x02, 0x06, 0x09, 0x09, 0xff, 0xff, 0xfd, 0xfd, 0x0b, 0xfd, 0xfa,
  0xf9, 0xfd, 0xf7, 0x04, 0xf2, 0xea, 0xf3, 0xf6, 0x04, 0xf2, 0xfa, 0x07,
  0xec, 0xf0, 0xf4, 0xed, 0xf5, 0xfb, 0xf5, 0xeb, 0xf9, 0xf9, 0xf7, 0xfc,
  0x0b, 0x09, 0x03, 0x0c, 0x11, 0x08, 0x0e, 0xfb, 0x18, 0x05, 0x05, 0x06,
  0x0c, 0xf8, 0x09, 0xfe, 0xfb, 0x07, 0xf7, 0x0a, 0x12, 0xf9, 0xf7, 0x18,
  0x04, 0xf4, 0xfd, 0xfa, 0xf3, 0x08, 0xfa, 0x0d, 0x0b, 0x0f, 0xfd, 0x22,
  0x0c, 0xf7, 0xfe, 0x0c, 0xfb, 0x01, 0x07, 0xf7, 0x0f, 0x15, 0xf7, 0x47,
  0x02, 0x02, 0xfe, 0xf7, 0xf5, 0xfb, 0xfa, 0x01, 0x06, 0xfd, 0xf9, 0x5a,
  0xef, 0xe7, 0xe7, 0xe6, 0xeb, 0xe4, 0xe9, 0xef, 0xd7, 0xdc, 0xec, 0x2e,
  0x04, 0xfd, 0xfe, 0xec, 0xe3, 0xf0, 0xf8, 0xf1, 0xca, 0xf9, 0xf6, 0x01,
  0x09, 0x00, 0x0d, 0x04, 0xfb, 0x0b, 0xff, 0x0b, 0xf6, 0x08, 0xf8, 0x0a,
  0x0b, 0x10, 0x0c, 0x10, 0x14, 0x02, 0x00, 0x06, 0x12, 0x16, 0x0e, 0x11,
  0x0c, 0x14, 0x02, 0x0d, 0x11, 0x14, 0x08, 0x0b, 0x1e, 0x0f, 0x11, 0xff,
  0x05, 0x04, 0x00, 0x06, 0x02, 0x07, 0x13, 0xff, 0x0a, 0x0d, 0x12, 0x01,
  0xf8, 0x02, 0x06, 0xf6, 0x04, 0xfd, 0x04, 0xfb, 0xfe, 0xe7, 0xfd, 0x0c,
  0x0b, 0xf3, 0xe6, 0xee, 0xf8, 0xf7, 0xf5, 0xf7, 0x03, 0x02, 0xfe, 0x0a,
  0x0d, 0x01, 0x0b, 0xf5, 0x06, 0xfc, 0x01, 0xfb, 0x07, 0x04, 0x10, 0x04,
  0xfa, 0xfd, 0xf7, 0x09, 0xff, 0xff, 0xf9, 0x03, 0x0c, 0xfd, 0x00, 0x08,
  0xf9, 0xef, 0xf0, 0xff, 0xf5, 0x01, 0xfe, 0x03, 0x0a, 0x08, 0xf4, 0x0f,
  0xeb, 0xf6, 0xf7, 0xee, 0xf8, 0x00, 0xfb, 0xfd, 0x10, 0xf6, 0xe8, 0x27,
  0xf0, 0xe8, 0xef, 0xf3, 0xf4, 0xf7, 0xf9, 0xea, 0xe9, 0xf4, 0xed, 0x26,
  0xf7, 0xef, 0xf9, 0xf4, 0xf0, 0xfe, 0xed, 0xe6, 0xd5, 0x00, 0xed, 0x1a,
  0xff, 0xff, 0x04, 0xf9, 0xf9, 0x05, 0xfe, 0xf4, 0xdf, 0xfa, 0x05, 0x00,
  0xfe, 0x01, 0xf5, 0xf8, 0xfa, 0xf6, 0x07, 0xf9, 0x05, 0xfe, 0xfc, 0x0b,
  0xf1, 0xfe, 0xff, 0x00, 0x02, 0xfd, 0x03, 0xf9, 0x0b, 0xee, 0xf7, 0x01,
  0xf0, 0x05, 0xf8, 0xfc, 0xfc, 0x09, 0x01, 0x02, 0x0b, 0x0a, 0x08, 0x07,
  0xea, 0xfb, 0xf8, 0xf7, 0xfc, 0xfb, 0xf9, 0xf8, 0x03, 0xf8, 0xfb, 0x18,
  0xf8, 0xf8, 0xf8, 0xf2, 0xf7, 0xf4, 0xf2, 0xee, 0xfb, 0xf1, 0xee, 0xf6,
  0xf4, 0xeb, 0xf8, 0x03, 0x04, 0xf6, 0xf8, 0x00, 0xff, 0xe7, 0xf7, 0xff,
  0x02, 0xfc, 0xf1, 0xf9, 0xff, 0xf3, 0xf3, 0xfd, 0x0d, 0xfa, 0x01, 0x0a,
  0xea, 0xf8, 0xef, 0xf9, 0xee, 0xf5, 0xf8, 0xe8, 0xf7, 0xf3, 0xee, 0xf7,
  0xec, 0xe3, 0xf1, 0xeb, 0xe9, 0xf2, 0xf4, 0xec, 0xef, 0xe7, 0xe8, 0x0f,
  0x04, 0xf7, 0xee, 0xef, 0xf6, 0xf5, 0xf3, 0xe8, 0xe5, 0xf5, 0xeb, 0x1a,
  0xf2, 0xf1, 0xf0, 0xfa, 0xf1, 0xf1, 0xf7, 0xf7, 0xe0, 0xf3, 0xfb, 0x15,
  0x0e, 0xfa, 0xf6, 0xff, 0xf3, 0x03, 0xf6, 0x06, 0xf2, 0x0b, 0xf8, 0x09,
  0x06, 0x0e, 0x00, 0xfd, 0xf7, 0x01, 0xfb, 0x09, 0xfc, 0x03, 0xfb, 0x09,
  0xf2, 0xec, 0xfa, 0xfc, 0xf9, 0xfe, 0xfd, 0xf9, 0xea, 0xf4, 0xe5, 0x09,
  0xee, 0xf6, 0xec, 0xf6, 0xf2, 0xf4, 0xfa, 0xe6, 0xf7, 0xdb, 0xda, 0xfa,
  0xf7, 0xfc, 0xf1, 0xed, 0xea, 0xee, 0xff, 0xfc, 0xfc, 0xf4, 0xe1, 0xf9,
  0xf7, 0xf6, 0xe7, 0xf3, 0xf5, 0xe6, 0xfd, 0xf3, 0xee, 0xe6, 0xe2, 0x0e,
